{
  "version": "1.0",
  "truncation": null,
  "padding": null,
  "added_tokens": [
    {
      "id": 0,
      "content": "<pad>",
      "single_word": false,
      "lstrip": false,
      "rstrip": false,
      "normalized": false,
      "special": true
    },
    {
      "id": 1,
      "content": "<bos>",
      "single_word": false,
      "lstrip": false,
      "rstrip": false,
      "normalized": false,
      "special": true
    },
    {
      "id": 2,
      "content": "<eos>",
      "single_word": false,
      "lstrip": false,
      "rstrip": false,
      "normalized": false,
      "special": true
    },
    {
      "id": 3,
      "content": "<unk>",
      "single_word": false,
      "lstrip": false,
      "rstrip": false,
      "normalized": false,
      "special": true
    },
    {
      "id": 4,
      "content": "<system>",
      "single_word": false,
      "lstrip": false,
      "rstrip": false,
      "normalized": false,
      "special": true
    },
    {
      "id": 5,
      "content": "<user>",
      "single_word": false,
      "lstrip": false,
      "rstrip": false,
      "normalized": false,
      "special": true
    },
    {
      "id": 6,
      "content": "<assistant>",
      "single_word": false,
      "lstrip": false,
      "rstrip": false,
      "normalized": false,
      "special": true
    },
    {
      "id": 7,
      "content": "<tool>",
      "single_word": false,
      "lstrip": false,
      "rstrip": false,
      "normalized": false,
      "special": true
    }
  ],
  "normalizer": {
    "type": "NFKC"
  },
  "pre_tokenizer": {
    "type": "ByteLevel",
    "add_prefix_space": false,
    "trim_offsets": true,
    "use_regex": true
  },
  "post_processor": null,
  "decoder": {
    "type": "ByteLevel",
    "add_prefix_space": true,
    "trim_offsets": true,
    "use_regex": true
  },
  "model": {
    "type": "BPE",
    "dropout": null,
    "unk_token": "<unk>",
    "continuing_subword_prefix": null,
    "end_of_word_suffix": null,
    "fuse_unk": false,
    "byte_fallback": true,
    "ignore_merges": false,
    "vocab": {
      "<pad>": 0,
      "<bos>": 1,
      "<eos>": 2,
      "<unk>": 3,
      "<system>": 4,
      "<user>": 5,
      "<assistant>": 6,
      "<tool>": 7,
      "!": 8,
      "\"": 9,
      "#": 10,
      "$": 11,
      "%": 12,
      "&": 13,
      "'": 14,
      "(": 15,
      ")": 16,
      "*": 17,
      "+": 18,
      ",": 19,
      "-": 20,
      ".": 21,
      "/": 22,
      "0": 23,
      "1": 24,
      "2": 25,
      "3": 26,
      "4": 27,
      "5": 28,
      "6": 29,
      "7": 30,
      "8": 31,
      "9": 32,
      ":": 33,
      ";": 34,
      "<": 35,
      "=": 36,
      ">": 37,
      "?": 38,
      "@": 39,
      "A": 40,
      "B": 41,
      "C": 42,
      "D": 43,
      "E": 44,
      "F": 45,
      "G": 46,
      "H": 47,
      "I": 48,
      "J": 49,
      "K": 50,
      "L": 51,
      "M": 52,
      "N": 53,
      "O": 54,
      "P": 55,
      "Q": 56,
      "R": 57,
      "S": 58,
      "T": 59,
      "U": 60,
      "V": 61,
      "W": 62,
      "X": 63,
      "Y": 64,
      "Z": 65,
      "[": 66,
      "\\": 67,
      "]": 68,
      "^": 69,
      "_": 70,
      "`": 71,
      "a": 72,
      "b": 73,
      "c": 74,
      "d": 75,
      "e": 76,
      "f": 77,
      "g": 78,
      "h": 79,
      "i": 80,
      "j": 81,
      "k": 82,
      "l": 83,
      "m": 84,
      "n": 85,
      "o": 86,
      "p": 87,
      "q": 88,
      "r": 89,
      "s": 90,
      "t": 91,
      "u": 92,
      "v": 93,
      "w": 94,
      "x": 95,
      "y": 96,
      "z": 97,
      "{": 98,
      "|": 99,
      "}": 100,
      "~": 101,
      "¡": 102,
      "¢": 103,
      "£": 104,
      "¤": 105,
      "¥": 106,
      "¦": 107,
      "§": 108,
      "¨": 109,
      "©": 110,
      "ª": 111,
      "«": 112,
      "¬": 113,
      "®": 114,
      "¯": 115,
      "°": 116,
      "±": 117,
      "²": 118,
      "³": 119,
      "´": 120,
      "µ": 121,
      "¶": 122,
      "·": 123,
      "¸": 124,
      "¹": 125,
      "º": 126,
      "»": 127,
      "¼": 128,
      "½": 129,
      "¾": 130,
      "¿": 131,
      "À": 132,
      "Á": 133,
      "Â": 134,
      "Ã": 135,
      "Ä": 136,
      "Å": 137,
      "Æ": 138,
      "Ç": 139,
      "È": 140,
      "É": 141,
      "Ê": 142,
      "Ë": 143,
      "Ì": 144,
      "Í": 145,
      "Î": 146,
      "Ï": 147,
      "Ð": 148,
      "Ñ": 149,
      "Ò": 150,
      "Ó": 151,
      "Ô": 152,
      "Õ": 153,
      "Ö": 154,
      "×": 155,
      "Ø": 156,
      "Ù": 157,
      "Ú": 158,
      "Û": 159,
      "Ü": 160,
      "Ý": 161,
      "Þ": 162,
      "ß": 163,
      "à": 164,
      "á": 165,
      "â": 166,
      "ã": 167,
      "ä": 168,
      "å": 169,
      "æ": 170,
      "ç": 171,
      "è": 172,
      "é": 173,
      "ê": 174,
      "ë": 175,
      "ì": 176,
      "í": 177,
      "î": 178,
      "ï": 179,
      "ð": 180,
      "ñ": 181,
      "ò": 182,
      "ó": 183,
      "ô": 184,
      "õ": 185,
      "ö": 186,
      "÷": 187,
      "ø": 188,
      "ù": 189,
      "ú": 190,
      "û": 191,
      "ü": 192,
      "ý": 193,
      "þ": 194,
      "ÿ": 195,
      "Ā": 196,
      "ā": 197,
      "Ă": 198,
      "ă": 199,
      "Ą": 200,
      "ą": 201,
      "Ć": 202,
      "ć": 203,
      "Ĉ": 204,
      "ĉ": 205,
      "Ċ": 206,
      "ċ": 207,
      "Č": 208,
      "č": 209,
      "Ď": 210,
      "ď": 211,
      "Đ": 212,
      "đ": 213,
      "Ē": 214,
      "ē": 215,
      "Ĕ": 216,
      "ĕ": 217,
      "Ė": 218,
      "ė": 219,
      "Ę": 220,
      "ę": 221,
      "Ě": 222,
      "ě": 223,
      "Ĝ": 224,
      "ĝ": 225,
      "Ğ": 226,
      "ğ": 227,
      "Ġ": 228,
      "ġ": 229,
      "Ģ": 230,
      "ģ": 231,
      "Ĥ": 232,
      "ĥ": 233,
      "Ħ": 234,
      "ħ": 235,
      "Ĩ": 236,
      "ĩ": 237,
      "Ī": 238,
      "ī": 239,
      "Ĭ": 240,
      "ĭ": 241,
      "Į": 242,
      "į": 243,
      "İ": 244,
      "ı": 245,
      "Ĳ": 246,
      "ĳ": 247,
      "Ĵ": 248,
      "ĵ": 249,
      "Ķ": 250,
      "ķ": 251,
      "ĸ": 252,
      "Ĺ": 253,
      "ĺ": 254,
      "Ļ": 255,
      "ļ": 256,
      "Ľ": 257,
      "ľ": 258,
      "Ŀ": 259,
      "ŀ": 260,
      "Ł": 261,
      "ł": 262,
      "Ń": 263,
      "ĠÐ": 264,
      "Ð¾": 265,
      "Ðµ": 266,
      "Ð°": 267,
      "ÑĤ": 268,
      "Ð¸": 269,
      "Ñģ": 270,
      "Ð¾Ð": 271,
      "Ġt": 272,
      "Ð½": 273,
      "ÑĢ": 274,
      "Ð»": 275,
      "he": 276,
      "Ġa": 277,
      "in": 278,
      "Ñĥ": 279,
      "re": 280,
      "Ð°Ð": 281,
      "Ġthe": 282,
      "Ñı": 283,
      "on": 284,
      "ÐµÐ": 285,
      "ÑĮ": 286,
      "at": 287,
      "Ñĭ": 288,
      "ĠÑģ": 289,
      "Ġs": 290,
      "er": 291,
      "ĠÐ²": 292,
      "Ġo": 293,
      "ĠÐ½": 294,
      "Ġw": 295,
      "ĠÐ¿": 296,
      "Ñĩ": 297,
      "en": 298,
      "it": 299,
      "Ðº": 300,
      "nd": 301,
      "Ð²": 302,
      "es": 303,
      "Ġc": 304,
      "is": 305,
      "or": 306,
      "Ð´": 307,
      "ou": 308,
      "ed": 309,
      "Ġb": 310,
      "al": 311,
      "ĠÐ¸": 312,
      "Ġp": 313,
      "ĠÐ¾": 314,
      "an": 315,
      "ing": 316,
      "Ġof": 317,
      "Ġf": 318,
      "ÑĤÐ¾": 319,
      "Ġm": 320,
      "Ð¼": 321,
      "Ġth": 322,
      "ar": 323,
      "Ġin": 324,
      "Ġd": 325,
      "Ġto": 326,
      "ÑģÑĤ": 327,
      "Ġand": 328,
      "ĠÐº": 329,
      "ÑĪ": 330,
      "Ð°Ð»": 331,
      "Ñħ": 332,
      "Ð¾Ð²": 333,
      "ic": 334,
      "ÐµÐ½": 335,
      "as": 336,
      "Ġh": 337,
      "ĠÐ´": 338,
      "ion": 339,
      "ĠÑĤ": 340,
      "le": 341,
      "ĠÐ±": 342,
      "ĠÐ¼": 343,
      "om": 344,
      "Ð¾Ð»": 345,
      "Ñİ": 346,
      "ÐµÑĢ": 347,
      "ÐµÐ»": 348,
      "³Ð¾": 349,
      "ĊĊ": 350,
      "ent": 351,
      "ĠÑĩ": 352,
      "ÐµÑĤ": 353,
      "ll": 354,
      "âĢ": 355,
      "Ð¾Ð¼": 356,
      "ly": 357,
      "Ġl": 358,
      "ÑĤÑĮ": 359,
      "Ð°Ðº": 360,
      "Ð½Ð¾": 361,
      "st": 362,
      "ÑĥÐ": 363,
      "ve": 364,
      "Ġn": 365,
      "Ġg": 366,
      "Ġi": 367,
      "ĠÐ¿ÑĢ": 368,
      "Ġre": 369,
      "Ġthat": 370,
      "ot": 371,
      "Ð¸Ð»": 372,
      "Ġu": 373,
      "Ġe": 374,
      "ow": 375,
      "ĠÐ·": 376,
      "ĠÐ½Ðµ": 377,
      "Ð¾Ð´": 378,
      "ct": 379,
      "ut": 380,
      "Ġy": 381,
      "..": 382,
      "se": 383,
      "Ð¾Ð¹": 384,
      "Ġbe": 385,
      "ro": 386,
      "Ð¸Ð": 387,
      "ÑģÑı": 388,
      "ĠÑĢ": 389,
      "Ð½Ð°": 390,
      "ÐµÐ¼": 391,
      "ĠÐµ": 392,
      "Ġit": 393,
      "ĠÐ½Ð°": 394,
      "id": 395,
      "Ð¾ÑĢ": 396,
      "Ð°Ð·": 397,
      "ig": 398,
      "Ð¿": 399,
      "et": 400,
      "'s": 401,
      "Ð°Ð¼": 402,
      "Ġis": 403,
      "ay": 404,
      "ĠT": 405,
      "Ð°Ð½": 406,
      "Ð¾Ñģ": 407,
      "Ġon": 408,
      "ĠÐ³": 409,
      "Ð±": 410,
      "ÑĨ": 411,
      "Ġwe": 412,
      "Ð°Ð²": 413,
      "ad": 414,
      "Ġyou": 415,
      "Ð°Ñģ": 416,
      "ce": 417,
      "Ð½Ñĭ": 418,
      "Ġfor": 419,
      "ĠÑĥ": 420,
      "ation": 421,
      "Ð¸ÑĤ": 422,
      "ĠâĢ": 423,
      "im": 424,
      "ver": 425,
      "ch": 426,
      "ĠÐ»": 427,
      "ÐµÐ´": 428,
      "ĠÐ±Ñĭ": 429,
      "Ð¾ÑĤ": 430,
      "ur": 431,
      "ol": 432,
      "Ð·": 433,
      "ĠÑĩÑĤÐ¾": 434,
      "am": 435,
      "Ñī": 436,
      "Ġst": 437,
      "Ð¸Ð½": 438,
      "Ð¾Ð³": 439,
      "il": 440,
      "ith": 441,
      "um": 442,
      "Ð¸Ð¼": 443,
      "ĠÐ¶": 444,
      "ĠA": 445,
      "Ð°ÑĢ": 446,
      "ĠI": 447,
      "Ġk": 448,
      "ĠÑı": 449,
      "ĠÑ": 450,
      "Ð¾Ð½": 451,
      "her": 452,
      "and": 453,
      "Ġan": 454,
      "Ð¸Ð²": 455,
      "Ġ(": 456,
      "ĠS": 457,
      "Ġwh": 458,
      "ir": 459,
      "ĠC": 460,
      "ÐµÐ¹": 461,
      "ÑģÐº": 462,
      "Ġwith": 463,
      "Ð¾Ð±": 464,
      "Ġas": 465,
      "Ð°ÑĤÑĮ": 466,
      "Ġwas": 467,
      "Ð¸Ðº": 468,
      "th": 469,
      "ul": 470,
      "Ð°Ð´": 471,
      "ter": 472,
      "Ð¾Ð³Ð¾": 473,
      "ĠÐ¾ÑĤ": 474,
      "Ð¹": 475,
      "ĠÐ¾Ð½": 476,
      "ĠÐ²Ñģ": 477,
      "ĠÑį": 478,
      "ld": 479,
      "Ð°ÑĤ": 480,
      "res": 481,
      "ĠÑģÑĤ": 482,
      "ra": 483,
      "Ġha": 484,
      "Ġhe": 485,
      "ke": 486,
      "Ð¾Ð¶": 487,
      "Ġ1": 488,
      "ÑģÑĮ": 489,
      "ri": 490,
      "ĠÐºÐ°Ðº": 491,
      "Ð»Ð¸": 492,
      "Ð°Ñı": 493,
      "od": 494,
      "ate": 495,
      "if": 496,
      "ÐµÐ²": 497,
      "ea": 498,
      "ÑĥÐ´": 499,
      "ÑģÑĤÐ²": 500,
      "igh": 501,
      "Ġcon": 502,
      "Ð¾Ð»ÑĮ": 503,
      "ĠM": 504,
      "ĠThe": 505,
      "Ġse": 506,
      "Ð¾Ðº": 507,
      "Ð¸Ðµ": 508,
      "...": 509,
      "ĠB": 510,
      "Ġare": 511,
      "ge": 512,
      "ĠÐ²Ñĭ": 513,
      "now": 514,
      "op": 515,
      "Ġor": 516,
      "Ð³": 517,
      "us": 518,
      "est": 519,
      "ist": 520,
      "ÑĤÐ¾ÑĢ": 521,
      "Ġuh": 522,
      "ĠÐ¿Ð¾": 523,
      "--": 524,
      "ab": 525,
      "ÑĥÐ¶": 526,
      "ers": 527,
      "Ġhave": 528,
      "rom": 529,
      "ĠÐĿ": 530,
      "qu": 531,
      "os": 532,
      "Ġthey": 533,
      "em": 534,
      "Ġpro": 535,
      "ĠÑģÐ²": 536,
      "ÐµÐ±": 537,
      "Ð½Ðµ": 538,
      "Ġat": 539,
      "Ġknow": 540,
      "Ġr": 541,
      "ore": 542,
      "Ġex": 543,
      "ac": 544,
      "ĠÐ±ÑĭÐ»": 545,
      "ant": 546,
      "Ð³Ð¾": 547,
      "ill": 548,
      "ess": 549,
      "ain": 550,
      "ĠâĢĶ": 551,
      "ĠÑħ": 552,
      "Ð¸ÑĤÑĮ": 553,
      "ew": 554,
      "'t": 555,
      "ĠP": 556,
      "ally": 557,
      "Ð¸Ñĩ": 558,
      "Ð¸Ñħ": 559,
      "Ġnot": 560,
      "Ġby": 561,
      "Ð¶": 562,
      "ÐµÐ³Ð¾": 563,
      "Ġde": 564,
      "ust": 565,
      "Ð½Ñĥ": 566,
      "ment": 567,
      "ive": 568,
      "Ð¸Ð´": 569,
      "Ð¸Ð¹": 570,
      "Ġdo": 571,
      "ight": 572,
      "un": 573,
      "ÐµÐ·": 574,
      "Ġcom": 575,
      "Ð¸Ñı": 576,
      "Ð°Ð¶": 577,
      "ity": 578,
      "ort": 579,
      "ĠÐĴ": 580,
      "ould": 581,
      "Ð»Ñı": 582,
      "ÐºÐ¾": 583,
      "Ð´Ð°": 584,
      "ĠÐ¾Ð±": 585,
      "the": 586,
      "Ġ\"": 587,
      "ĠÐŁ": 588,
      "ÑĥÐ³": 589,
      "ĠâĢĵ": 590,
      "pe": 591,
      "ĠÑģÐº": 592,
      "Ġsu": 593,
      "Ġv": 594,
      "ÐµÐº": 595,
      "ĠÐ°": 596,
      "ĠW": 597,
      "ĠH": 598,
      "Ġj": 599,
      "ĠÑĤÐ°Ðº": 600,
      "ies": 601,
      "eah": 602,
      "ĠÑģÐ»": 603,
      "Ġal": 604,
      "ĠÐµÐ³Ð¾": 605,
      "nt": 606,
      "oc": 607,
      "Ġli": 608,
      "Ġfrom": 609,
      "ÐµÑĩ": 610,
      "Ð¾Ð·": 611,
      "out": 612,
      "Ġgo": 613,
      "ÐµÐ»ÑĮ": 614,
      "pp": 615,
      "ÐµÐ¿": 616,
      "ĠR": 617,
      "ome": 618,
      "ÑģÑĤÑĮ": 619,
      "Ġbut": 620,
      "ÐµÑģ": 621,
      "ĠN": 622,
      "Ġab": 623,
      "red": 624,
      "Ð°Ð»Ð°": 625,
      "el": 626,
      "all": 627,
      "ud": 628,
      "ĠÐ¸Ð·": 629,
      "ĠÐ¿Ð¾Ð´": 630,
      "uh": 631,
      "ĠF": 632,
      "ĠD": 633,
      "ost": 634,
      "Ð°Ð»Ð¸": 635,
      "ell": 636,
      "ÑĢÐ°": 637,
      "iv": 638,
      "ĠÐ·Ð°": 639,
      "gh": 640,
      "ĠÐĲ": 641,
      "end": 642,
      "Ġch": 643,
      "Ð¾Ñĩ": 644,
      "ÐºÐ°": 645,
      "ĠÑĤÐ¾": 646,
      "ÐµÑĪ": 647,
      "ated": 648,
      "art": 649,
      "Ġle": 650,
      "ÑĥÑĤ": 651,
      "ĠL": 652,
      "Ġwere": 653,
      "Ġsh": 654,
      "ĠÑįÑĤÐ¾": 655,
      "ĠÐŀ": 656,
      "ĠÐ²ÑģÐµ": 657,
      "ÐµÐ½ÑĮ": 658,
      "ĠÑĢÐ°Ð·": 659,
      "ast": 660,
      "Ġwhe": 661,
      "ĠÐºÐ¾": 662,
      "Ġthis": 663,
      "fe": 664,
      "ÐµÑģÑĤ": 665,
      "ĠG": 666,
      "Ð¾Ð²Ð¾ÑĢ": 667,
      "Ð¸Ð·": 668,
      "âĢĵ": 669,
      "ction": 670,
      "ure": 671,
      "Ġme": 672,
      "Ð°Ð¼Ð¸": 673,
      "Ġso": 674,
      "ap": 675,
      "ĠÐ¡": 676,
      "ÑĥÐ¼": 677,
      "Ġ2": 678,
      "ind": 679,
      "ous": 680,
      "our": 681,
      "pl": 682,
      "ÑĢÑĥÐ³": 683,
      "ard": 684,
      "Ġlike": 685,
      "ĠÐļ": 686,
      "Ġall": 687,
      "ough": 688,
      "ÑĥÑĪ": 689,
      "ĠÑįÑĤ": 690,
      "ĠÑģÐ²Ð¾": 691,
      "ear": 692,
      "ÐµÐ¶": 693,
      "Ġcan": 694,
      "Ð»Ð°": 695,
      "to": 696,
      "ich": 697,
      "yeah": 698,
      "ÐµÐ½Ñı": 699,
      "ans": 700,
      "pt": 701,
      "Ð½Ñı": 702,
      "ĠE": 703,
      "ag": 704,
      "ial": 705,
      "ĠÐºÑĢ": 706,
      "Ð¾Ð³Ð´Ð°": 707,
      "Ð°Ð¹": 708,
      "ĠÐĺ": 709,
      "Ð¸ÑĨ": 710,
      "Ġone": 711,
      "au": 712,
      "Ġwor": 713,
      "ĠÐ¶Ðµ": 714,
      "ther": 715,
      "ÑĭÐ¹": 716,
      "Ð¾Ð¿": 717,
      "ine": 718,
      "ĠÐľ": 719,
      "Ð½ÑĭÐ¹": 720,
      "ÑĭÐ²": 721,
      "The": 722,
      "ok": 723,
      "ink": 724,
      "Ð¾Ð»ÑĮÐºÐ¾": 725,
      "one": 726,
      "Ð°Ð¿": 727,
      "ÑĥÑĩ": 728,
      "Ġjust": 729,
      "ĠÐºÐ¾ÑĤÐ¾ÑĢ": 730,
      "ĠÐ¼Ð½Ðµ": 731,
      "ĠÐ½Ð¾": 732,
      "Ġthere": 733,
      "ĠÐ¾Ð´": 734,
      "ÑīÐµ": 735,
      "ĠÐ»Ñİ": 736,
      "ÐĿ": 737,
      "Ġout": 738,
      "ong": 739,
      "Ġhas": 740,
      "âĢĶ": 741,
      "Ġabout": 742,
      "Ð¾ÑģÑĤ": 743,
      "ĠÐ³Ð¾": 744,
      "ÐºÐ¸": 745,
      "iz": 746,
      "Ġtr": 747,
      "Ð°Ð±": 748,
      "Ġ-": 749,
      ").": 750,
      "ÐĴ": 751,
      "ĠÐ¼ÐµÐ½Ñı": 752,
      "Ð½Ð¾Ð¹": 753,
      "00": 754,
      "ÑĥÐ±": 755,
      "ĠÐ¿ÐµÑĢ": 756,
      "Ġpl": 757,
      "ĠÐĶ": 758,
      "Ġne": 759,
      "og": 760,
      "act": 761,
      "ĠÐ¾Ð½Ð°": 762,
      "Ð¾ÑĪ": 763,
      "ress": 764,
      "ÑĥÐ¿": 765,
      "ĠÐ¢": 766,
      "Ġus": 767,
      "ÐµÐ½Ð½Ð¾": 768,
      "ie": 769,
      "Ð¾Ð¼Ñĥ": 770,
      "Ð°ÐµÑĤ": 771,
      "are": 772,
      "so": 773,
      "ÐµÐ³": 774,
      "ib": 775,
      "ound": 776,
      "ĠÑĪ": 777,
      "Ð°Ñİ": 778,
      "ÑıÑĤ": 779,
      "Ġhis": 780,
      "Ġhad": 781,
      "ĠJ": 782,
      "ĠÑģÐºÐ°Ð·": 783,
      "Ð¾Ðµ": 784,
      "con": 785,
      "ĠÐ±ÑĭÐ»Ð¾": 786,
      "te": 787,
      "for": 788,
      "ĠÑĥÐ¶": 789,
      "ÑĦ": 790,
      "ÑĥÑİ": 791,
      "Ġwho": 792,
      "age": 793,
      "ĠÑģÐ°Ð¼": 794,
      "ĠÑĤÑĭ": 795,
      "ĠÑģÐ¿": 796,
      "ack": 797,
      "very": 798,
      "ÐŁ": 799,
      "Ð¼Ð¸": 800,
      "ep": 801,
      "cl": 802,
      "ical": 803,
      "ub": 804,
      "Ġar": 805,
      "Ġmore": 806,
      "Ġad": 807,
      "Ð¸Ð»Ð¸": 808,
      "Ðĺ": 809,
      "ĠÐ¯": 810,
      "Ġ[": 811,
      "ĠÐµÐµ": 812,
      "Ð½Ð¾Ð³Ð¾": 813,
      "Ġthink": 814,
      "ide": 815,
      "ice": 816,
      "ak": 817,
      "per": 818,
      "Ġwould": 819,
      "Ð°ÑģÑĮ": 820,
      "ĠÐ³Ð¾Ð²Ð¾ÑĢ": 821,
      "ime": 822,
      "Ġcomp": 823,
      "Ġcl": 824,
      "int": 825,
      "ult": 826,
      "Ġup": 827,
      "ĠÐ¿Ð¾Ð»": 828,
      "ary": 829,
      "ĠO": 830,
      "ĠÐ¿Ð¾Ñģ": 831,
      "ence": 832,
      "ff": 833,
      "Ġdon": 834,
      "ign": 835,
      "Ġwhat": 836,
      "Ð¼Ñĥ": 837,
      "ven": 838,
      "Ġbec": 839,
      "ays": 840,
      "Ġmy": 841,
      "ause": 842,
      "ase": 843,
      "ose": 844,
      "Ġres": 845,
      "Ġgen": 846,
      "Ð¸ÑĢ": 847,
      "Ð°Ð³": 848,
      "ÐºÑĥ": 849,
      "Ġtheir": 850,
      "Ġim": 851,
      "Ð¸Ñģ": 852,
      "Ð¸Ð»Ð°": 853,
      "Ð´Ðµ": 854,
      "able": 855,
      "ĠÑģÐ¼": 856,
      "Ġsome": 857,
      "ĠÐ´Ð²": 858,
      "ations": 859,
      "Ð¾ÑģÑĮ": 860,
      "uc": 861,
      "port": 862,
      "Ġcont": 863,
      "Ð¸ÑĪ": 864,
      "Ġpr": 865,
      "Ð¡": 866,
      "Ġif": 867,
      "Ġ--": 868,
      "ue": 869,
      "Ġbeen": 870,
      "ake": 871,
      "ite": 872,
      "Ð½ÑĭÐµ": 873,
      "ions": 874,
      "ÐµÐ½Ð¸": 875,
      "Ġwhich": 876,
      "ance": 877,
      "Ġget": 878,
      "oh": 879,
      "ĠÐ³Ð»": 880,
      "ĠÑĤÑĢ": 881,
      "Ðŀ": 882,
      "Ġother": 883,
      "ÑħÐ¾Ð´": 884,
      "ame": 885,
      "ĠÐ±ÑĥÐ´": 886,
      "Ġthem": 887,
      "ĠIn": 888,
      "ÑĭÐµ": 889,
      "ia": 890,
      "Ġper": 891,
      "we": 892,
      "ĠU": 893,
      "Ð°Ñħ": 894,
      "ÐµÐ±Ñı": 895,
      "Ðļ": 896,
      "ÐµÑĢÑĮ": 897,
      "ĠÑĢÑĥ": 898,
      "Â«": 899,
      "ory": 900,
      "Ġwhen": 901,
      "Ġthan": 902,
      "Ġac": 903,
      "Ġen": 904,
      "ÑĪÐµ": 905,
      "Ġag": 906,
      "Ġun": 907,
      "ors": 908,
      "ip": 909,
      "Â»": 910,
      "Ġany": 911,
      "ass": 912,
      "Ġyear": 913,
      "Ġgr": 914,
      "mer": 915,
      "Ġ19": 916,
      "ber": 917,
      "Ð¸Ð»ÑģÑı": 918,
      "ook": 919,
      "ents": 920,
      "ings": 921,
      "Ð½Ð¸": 922,
      "Ð°Ð»ÑĮ": 923,
      "ĠÑĤÐ¾Ð»ÑĮÐºÐ¾": 924,
      "ish": 925,
      "ry": 926,
      "ÐµÐ½Ð¸Ðµ": 927,
      "ÐµÐ½Ð¸Ñı": 928,
      "'re": 929,
      "Ġtw": 930,
      "ÑĥÑĢ": 931,
      "Ð½Ð¸Ðº": 932,
      "ĠÑĢÐ°Ñģ": 933,
      "ph": 934,
      "ex": 935,
      "ÐµÐ»Ð¾Ð²": 936,
      "cent": 937,
      "ĠÐ´ÑĢÑĥÐ³": 938,
      "Ġpe": 939,
      "ÑģÐ¿": 940,
      "Ġman": 941,
      "Ġno": 942,
      "vel": 943,
      "Ð¸Ð±": 944,
      "ÑĭÑħ": 945,
      "Ġqu": 946,
      "own": 947,
      "Ġ3": 948,
      "Ġpre": 949,
      "ĠÐ¼Ð¾": 950,
      "ĠÐ³ÑĢ": 951,
      "Ġsp": 952,
      "ren": 953,
      "ĠÐ·Ð½Ð°": 954,
      "ople": 955,
      "ree": 956,
      "ĠÐ¿Ð¾ÑĤ": 957,
      "Ð½ÑĭÐ¼": 958,
      "Ġwill": 959,
      "Ġdis": 960,
      "ĠÐ²Ð·": 961,
      "Ð¸ÑĤÐµÐ»ÑĮ": 962,
      "ates": 963,
      "Ġbecause": 964,
      "ĠÐ²Ð¸Ð´": 965,
      "ĠÐ³Ð¾Ð»": 966,
      ".\"": 967,
      "ÑģÑĤÑĢ": 968,
      "ĠÐ´ÐµÐ»": 969,
      "Ġwell": 970,
      "ÐµÐ±Ðµ": 971,
      "ÑģÑĤÐ¸": 972,
      "ens": 973,
      "ire": 974,
      "Ġum": 975,
      "Ġ.": 976,
      "ount": 977,
      "ĠÐµÐ¼Ñĥ": 978,
      "ĠÐĳ": 979,
      "ition": 980,
      "ĠÐĵ": 981,
      "ÑĢÐ¾Ñģ": 982,
      "ru": 983,
      "of": 984,
      "Ġits": 985,
      "reat": 986,
      "ĠÐ»ÑİÐ±": 987,
      "ĠK": 988,
      "erv": 989,
      "hing": 990,
      "ÑĢÐ°Ð²": 991,
      "ote": 992,
      "be": 993,
      "ĠÐ¸Ð¼": 994,
      "Ð½ÑĭÑħ": 995,
      "Ð½ÑĥÐ»": 996,
      "Ð°ÑĪ": 997,
      "av": 998,
      "ĠÐµÑīÐµ": 999,
      "),": 1000,
      "Ð°Ð»ÑģÑı": 1001,
      "ĠTh": 1002,
      "itt": 1003,
      "Ġtime": 1004,
      "ov": 1005,
      "ĠÐ¼Ñĭ": 1006,
      "huh": 1007,
      "Ð¢": 1008,
      "ach": 1009,
      "ÑıÑĤÑĮ": 1010,
      "Ġwork": 1011,
      "Ð½Ð¾Ðµ": 1012,
      "cre": 1013,
      "Ġreally": 1014,
      "ile": 1015,
      "Ġover": 1016,
      "Ġpeople": 1017,
      "Ġdid": 1018,
      "ĠÂ«": 1019,
      "ÐµÑĨ": 1020,
      "ĠÐ½Ð°Ð´": 1021,
      "ict": 1022,
      "Ð¸ÑĤÐµ": 1023,
      "Ð¸Ð½Ð°": 1024,
      "ian": 1025,
      "hum": 1026,
      "Ð¾Ð²Ð°": 1027,
      "Ġ,": 1028,
      "uch": 1029,
      "ĠÑĨ": 1030,
      "Ð»Ñİ": 1031,
      "ĠÐ¿Ð¾Ðº": 1032,
      "ÑĭÐ¼": 1033,
      "ÑĤÐ¾Ð±": 1034,
      "ĠSt": 1035,
      "ÐµÐ¼Ñĥ": 1036,
      "ÑĢÐµÐ¼": 1037,
      "form": 1038,
      "Ñĳ": 1039,
      "Ġoff": 1040,
      "ÐµÐ»Ð¸": 1041,
      "ĠÐ¿ÑĢÐµÐ´": 1042,
      "ÑģÑĤÐ°Ð²": 1043,
      "ne": 1044,
      "ang": 1045,
      "ces": 1046,
      "gr": 1047,
      "Ġshe": 1048,
      "Ġtwo": 1049,
      "ĠÐ¾Ð¿": 1050,
      "ÑĤÐ¸": 1051,
      "ÑĤÐµ": 1052,
      "Ð½Ð°Ñı": 1053,
      "Ġalso": 1054,
      "Ġpart": 1055,
      "Ð¾ÑĤÑĢ": 1056,
      "ÑĥÐ·": 1057,
      "Ġnew": 1058,
      "but": 1059,
      "ĠÑĩÐµÐ»Ð¾Ð²": 1060,
      "ĠÐ¿ÑĢÐ¾": 1061,
      "com": 1062,
      "Ġsa": 1063,
      "ific": 1064,
      "Ð¸Ð³": 1065,
      "ĠÐ¼Ð¾Ð³": 1066,
      "ÐµÑĪÑĮ": 1067,
      "lic": 1068,
      "ious": 1069,
      "ty": 1070,
      "ĊĊĊĊ": 1071,
      "ys": 1072,
      "ild": 1073,
      "ÑģÐ»": 1074,
      "ĠÐĽ": 1075,
      "ĠÐ³Ð¾ÑĢ": 1076,
      "ÐµÑħ": 1077,
      "Ġthen": 1078,
      "ob": 1079,
      "âĢĻ": 1080,
      "ĠÑģÐºÐ°Ð·Ð°Ð»": 1081,
      "Ġinto": 1082,
      "rit": 1083,
      "ĠÐ¼Ð¾Ð¶": 1084,
      "that": 1085,
      "ÑĢÐ°Ð½": 1086,
      "Ġpo": 1087,
      "ark": 1088,
      "'m": 1089,
      "Ġind": 1090,
      "ord": 1091,
      "Ġact": 1092,
      "Ġmay": 1093,
      "ÐµÐ¿ÐµÑĢÑĮ": 1094,
      "Ġbet": 1095,
      "Ġthese": 1096,
      "ĠÑĩÑĤÐ¾Ð±": 1097,
      "ÑĥÑħ": 1098,
      "ple": 1099,
      "'ve": 1100,
      "Ġmost": 1101,
      "ĠÑĦ": 1102,
      "rent": 1103,
      "ail": 1104,
      "ĠÐ²Ð¾": 1105,
      "ĠÑĥÐ¶Ðµ": 1106,
      "ÑıÐ»": 1107,
      "old": 1108,
      "Ġdif": 1109,
      "ons": 1110,
      "ÑĥÐ²": 1111,
      "ÐµÑĢÐ´": 1112,
      "ÑģÐ»Ð¸": 1113,
      "ĠÐ½Ð¸": 1114,
      "Ġhow": 1115,
      "ĠÐ¿Ð»": 1116,
      "other": 1117,
      "cess": 1118,
      "Ġnow": 1119,
      "Ġright": 1120,
      "ĠÑģÑĤÐ°ÑĢ": 1121,
      "Ġcell": 1122,
      "Ð°Ð»Ð¾": 1123,
      "Ġonly": 1124,
      "pec": 1125,
      "ĠCh": 1126,
      "ĠÐ¾Ñĩ": 1127,
      "ÐĶ": 1128,
      "fter": 1129,
      "iss": 1130,
      "ĠY": 1131,
      "Ġyeah": 1132,
      "pro": 1133,
      "ĠÐ±Ð»": 1134,
      "ace": 1135,
      "ĠÐ²Ð¾Ð·": 1136,
      "ĠÑĩÐµÐ»Ð¾Ð²ÐµÐº": 1137,
      "ative": 1138,
      "ÑĮÑı": 1139,
      "Ġgood": 1140,
      "ĠÑģÐ¾Ð²": 1141,
      "Ġprob": 1142,
      "Ġher": 1143,
      "ĠÐ»Ð¸": 1144,
      "Ġam": 1145,
      "ĠÐ±Ð¾Ð»ÑĮ": 1146,
      "Ġcould": 1147,
      "ĠÐ¼Ð¾Ð»": 1148,
      "cted": 1149,
      "irst": 1150,
      "well": 1151,
      "hed": 1152,
      "ond": 1153,
      "und": 1154,
      "Ġour": 1155,
      "ĠÐ¾ÑĤÐ²": 1156,
      "imes": 1157,
      "Ð¸Ð¶": 1158,
      "ĠÐºÐ¾Ð³Ð´Ð°": 1159,
      "ĠÐ´Ð»Ñı": 1160,
      "Ðľ": 1161,
      "press": 1162,
      "ĠÐ´Ð¾Ð»": 1163,
      "Ð°ÑģÑĤ": 1164,
      "ĠÐ§": 1165,
      "ÐĲ": 1166,
      "ood": 1167,
      "ÐµÑĤÑģÑı": 1168,
      "ular": 1169,
      "ĠÐł": 1170,
      "ĠÐ±ÑĭÑĤÑĮ": 1171,
      "Ġsc": 1172,
      "ĠÐ¸Ñħ": 1173,
      "ade": 1174,
      "omet": 1175,
      "Ð°Ð½Ð¾Ð²": 1176,
      "ual": 1177,
      "ĠÐ±ÐµÐ·": 1178,
      "Ġapp": 1179,
      "Ð¾Ð±ÑĢ": 1180,
      "li": 1181,
      "Ġ4": 1182,
      "Ġyour": 1183,
      "ĠÐŀÐ½": 1184,
      "ÑĭÑĪ": 1185,
      "Ġco": 1186,
      "ins": 1187,
      "Ġsee": 1188,
      "ĠIt": 1189,
      "Ġ5": 1190,
      "ĠÐ¿Ð¾ÑģÐ»": 1191,
      "Ġcons": 1192,
      "Ð¸Ð¼Ð¸": 1193,
      "Ġmuch": 1194,
      "ick": 1195,
      "Ġgu": 1196,
      "Ġwhere": 1197,
      "Ġro": 1198,
      "ĠÐ´Ð¾": 1199,
      "ily": 1200,
      "ĠV": 1201,
      "ĠÑģÐ¾": 1202,
      "ÐµÐ»Ð°": 1203,
      "ÐµÑģÐº": 1204,
      "ÑģÑĤÐ²Ð¾": 1205,
      "aw": 1206,
      "olog": 1207,
      "erm": 1208,
      "ÐµÐµ": 1209,
      "ĠÑĤÐµÐ¿ÐµÑĢÑĮ": 1210,
      "tern": 1211,
      "ĠÐ¾Ñģ": 1212,
      "ĠÐ³Ð»Ð°Ð·": 1213,
      "Ð´Ñĥ": 1214,
      "ĠÐ½ÐµÐ³Ð¾": 1215,
      "oth": 1216,
      "sel": 1217,
      "ĠÐ²ÐµÑĢ": 1218,
      "Ġmean": 1219,
      "ÐµÑĤÑĮ": 1220,
      "ĠÐ½Ð°Ñģ": 1221,
      "Ġeven": 1222,
      "Ġdes": 1223,
      "du": 1224,
      "Ð¸Ð¸": 1225,
      "Ġevery": 1226,
      "ĠÐķ": 1227,
      "Ð¸ÑģÑĮ": 1228,
      "Ð¾Ñİ": 1229,
      "Ġstud": 1230,
      "ater": 1231,
      "Ġlot": 1232,
      "Ġund": 1233,
      "Ð°Ð¶Ðµ": 1234,
      "ĠÐ»ÑİÐ´": 1235,
      "ĠÑħÐ¾ÑĤ": 1236,
      "Ġbl": 1237,
      "Ġass": 1238,
      "ĠÑģÐµÐ±Ñı": 1239,
      "ks": 1240,
      "ÑĥÐ´ÑĮ": 1241,
      "ident": 1242,
      "Ð¯": 1243,
      "ÑĢÐ°ÑĤ": 1244,
      "Ġsub": 1245,
      "Ġ]": 1246,
      "ĠÐ¿ÑĢÐ¸": 1247,
      "ĠÐ¿Ð¾ÑĢ": 1248,
      "ied": 1249,
      "tain": 1250,
      "Ġdiffe": 1251,
      "ĠÐŃ": 1252,
      "Ġyears": 1253,
      "ĠÐ¿Ð¾Ð½": 1254,
      "Ġpat": 1255,
      "ÐºÐ¾Ð¹": 1256,
      "fect": 1257,
      "Ġpres": 1258,
      "rough": 1259,
      "ĠÑĥÐ¼": 1260,
      "Ġsy": 1261,
      "Ġhere": 1262,
      "ĠÐ»Ð¸ÑĨ": 1263,
      "ÐºÐµ": 1264,
      "ÐºÐ¾Ð²": 1265,
      "ĠÐĿÐ¾": 1266,
      "oy": 1267,
      "ĠÐ´Ð°": 1268,
      "wh": 1269,
      "cy": 1270,
      "ĠÐ²Ð´": 1271,
      "ating": 1272,
      "ĠÐ¿Ð¾Ñĩ": 1273,
      "ise": 1274,
      "Ġhim": 1275,
      "ublic": 1276,
      "ĠÐ¶ÐµÐ½": 1277,
      "Ð»Ð¾": 1278,
      "Ġgot": 1279,
      "ĠÐ¶Ð¸Ð·": 1280,
      "ouse": 1281,
      "wn": 1282,
      "Ġkind": 1283,
      "clud": 1284,
      "Ð½Ð¾Ð²": 1285,
      "Ġcol": 1286,
      "Ġreg": 1287,
      "Ġsay": 1288,
      "ÐµÑĤÐµ": 1289,
      "Ð»Ð¸Ð²": 1290,
      "ĠÐ½Ð¸Ðº": 1291,
      "right": 1292,
      "les": 1293,
      "ĠÐ¾Ð½Ð¸": 1294,
      "Ġfirst": 1295,
      "Ð»ÑıÐ´": 1296,
      "Ġtoo": 1297,
      "Ġused": 1298,
      "ĠÑĥÐ´": 1299,
      "cri": 1300,
      "Ð¸ÑĪÑĮ": 1301,
      "ĠÐ´Ð°Ð¶Ðµ": 1302,
      "Ġsaid": 1303,
      "Ð°Ð»Ð¾ÑģÑĮ": 1304,
      "rest": 1305,
      "Ġsomet": 1306,
      "ween": 1307,
      "ÑĥÑģÑĤ": 1308,
      "ĠCl": 1309,
      "ĠÑĤÐµÐ¼": 1310,
      "ĠÑĥÐ²": 1311,
      "ĠÐ¿Ð¾Ð¼": 1312,
      "its": 1313,
      "ĠNew": 1314,
      "vers": 1315,
      "ĠÐºÐ¾Ð½": 1316,
      "ĠÐ±ÑĭÐ»Ð°": 1317,
      "ron": 1318,
      "ism": 1319,
      "iew": 1320,
      "ually": 1321,
      "Ġob": 1322,
      "Ġdoes": 1323,
      "meric": 1324,
      "Ġthose": 1325,
      "ĠÑģÐ¾Ð±": 1326,
      "ĠÐ¾Ðº": 1327,
      "ove": 1328,
      "fore": 1329,
      "ork": 1330,
      "ĠÐ½Ð°Ñĩ": 1331,
      "Ð°ÑĤÑĮÑģÑı": 1332,
      "ues": 1333,
      "Ġbu": 1334,
      "ĠÐ²ÑĢÐµÐ¼": 1335,
      "ĠÐ½Ð°ÑĪ": 1336,
      "de": 1337,
      "ĠÐ²Ð°Ñģ": 1338,
      "Ġunder": 1339,
      "ittle": 1340,
      "ĠÐ½Ð°Ð¿": 1341,
      ",\"": 1342,
      "Ġinv": 1343,
      "ments": 1344,
      "ft": 1345,
      "Ġra": 1346,
      "ĠÐ¤": 1347,
      "Ð¸ÑĤÑĮÑģÑı": 1348,
      "Ð½Ð¾Ð¼": 1349,
      "ÑĢÐ¾Ð²": 1350,
      "ĠÐ¸Ð»Ð¸": 1351,
      "NA": 1352,
      "Ð»ÐµÐ½": 1353,
      "ĠÐĹ": 1354,
      "Ġway": 1355,
      "Ġback": 1356,
      "Ġgoing": 1357,
      "Ġfl": 1358,
      "Ġtrans": 1359,
      "Ð¿ÑĢ": 1360,
      "ning": 1361,
      "Ġafter": 1362,
      "oll": 1363,
      "ility": 1364,
      "ĠÐ²ÑģÑĳ": 1365,
      "Ġrem": 1366,
      "ĠÐ·Ð°Ð¼": 1367,
      "pos": 1368,
      "ics": 1369,
      "Ġatt": 1370,
      "ĠÐ²Ð¾ÑĤ": 1371,
      "ĠÐ´ÑĥÐ¼": 1372,
      "als": 1373,
      "Ġev": 1374,
      "Ġsuch": 1375,
      "ĠÑĩÐµÑĢ": 1376,
      "Ġcall": 1377,
      "ĠÐ¿Ð¾Ð²": 1378,
      "Ð°ÑİÑĤ": 1379,
      "Ð½ÑĥÑİ": 1380,
      "Ġvery": 1381,
      "Ġreport": 1382,
      "....": 1383,
      "ited": 1384,
      ".)": 1385,
      "ting": 1386,
      "ÑĥÐ²ÑģÑĤÐ²": 1387,
      "ĠÐĶÐ°": 1388,
      "Ġcomm": 1389,
      "Ġph": 1390,
      "Ġwant": 1391,
      "Ġmany": 1392,
      "ĠÐ´Ð¾Ð¼": 1393,
      "ĠÐºÐ½Ñı": 1394,
      "je": 1395,
      "ĠÐ½ÐµÑĤ": 1396,
      "ased": 1397,
      "Ð§": 1398,
      "get": 1399,
      "ĠÑĤÐ²": 1400,
      "ĠÑĤÐ¾Ð³Ð¾": 1401,
      "day": 1402,
      "Ð°Ð²ÑĪ": 1403,
      "ÑĢÐ¾Ð´": 1404,
      "Ð¾Ð¶Ðµ": 1405,
      "ational": 1406,
      "ĠÐ¾ÑĩÐµÐ½ÑĮ": 1407,
      "ÑĬ": 1408,
      "Ġlittle": 1409,
      "Ġrel": 1410,
      "ife": 1411,
      "Ġinter": 1412,
      "Ð¸Ð¿": 1413,
      "ĠBut": 1414,
      "ible": 1415,
      "ĠÐ¿ÑĢÐ°Ð²": 1416,
      "Ð¸ÑģÑĤ": 1417,
      "ĠÐ½Ð¸Ñĩ": 1418,
      "ĠÐ·Ð½": 1419,
      "ts": 1420,
      "ÑıÐ´": 1421,
      "ars": 1422,
      "hes": 1423,
      "ata": 1424,
      "Ð¾ÑĢÐ¾ÑĪ": 1425,
      "ix": 1426,
      "ient": 1427,
      "ably": 1428,
      "ÑģÐµ": 1429,
      "air": 1430,
      "Ġfe": 1431,
      "ool": 1432,
      "Ð°Ñĩ": 1433,
      "Ð´ÐµÐ»": 1434,
      "inton": 1435,
      "Ġshould": 1436,
      "Ġpos": 1437,
      "ffect": 1438,
      "Ð»ÑĮ": 1439,
      "Ġpol": 1440,
      "pr": 1441,
      "ities": 1442,
      "hen": 1443,
      "ĠÑĩÑĤÐ¾Ð±Ñĭ": 1444,
      "ĠÑĩÐµÐ¼": 1445,
      "ĠÑģÐµÐ±Ðµ": 1446,
      "Ġsm": 1447,
      "Ġbetween": 1448,
      "Ð½ÐµÐ¹": 1449,
      "ĠÐ²Ð´ÑĢÑĥÐ³": 1450,
      "ĠÐ¼Ð¾Ð¶ÐµÑĤ": 1451,
      "ÐµÐ´ÑĮ": 1452,
      "Ð¸Ð»Ð°ÑģÑĮ": 1453,
      "ĠÐµÑģÑĤÑĮ": 1454,
      "ax": 1455,
      "Ð°ÑıÑģÑĮ": 1456,
      "cept": 1457,
      "ĠÐ²Ð°Ð¼": 1458,
      "Ġprote": 1459,
      "Ġmake": 1460,
      "ized": 1461,
      "ĠThis": 1462,
      "alk": 1463,
      "ĠÐĺÐ²": 1464,
      "Ġfam": 1465,
      "Ð°Ð»Ð¸ÑģÑĮ": 1466,
      "ved": 1467,
      "ĠÐ´ÑĢ": 1468,
      "Ġdown": 1469,
      "Ġthough": 1470,
      "ÑĭÑĤ": 1471,
      "Ð¸Ð½Ñĥ": 1472,
      "ath": 1473,
      "ful": 1474,
      "Ġlong": 1475,
      "ĠÐ¾ÑģÑĤ": 1476,
      "ÐµÑī": 1477,
      "ines": 1478,
      "ures": 1479,
      "you": 1480,
      "cur": 1481,
      "ĠÐ±Ð¾Ð»": 1482,
      "ĠÐ·Ð°Ðº": 1483,
      "Ġhigh": 1484,
      "ĠÐ³Ð¾Ð»Ð¾Ð²": 1485,
      "ÐµÑĢÐ¶": 1486,
      "urn": 1487,
      "gg": 1488,
      "way": 1489,
      "ull": 1490,
      "ever": 1491,
      "ĠÐºÐ¾Ð¼": 1492,
      "ÑĢÐµÐ´": 1493,
      "Ġsupp": 1494,
      "gen": 1495,
      "Ġ6": 1496,
      "ĠHe": 1497,
      "ĠAmeric": 1498,
      "Ðĳ": 1499,
      "Ġem": 1500,
      "oup": 1501,
      "ran": 1502,
      "Ġdet": 1503,
      "Ġuse": 1504,
      "ĠÐ½ÐµÐ¼": 1505,
      "uring": 1506,
      "ĠÑģÐµÑĢÐ´": 1507,
      "any": 1508,
      "ĠÐµÑģÐ»Ð¸": 1509,
      "ĠÐ£": 1510,
      "Ġte": 1511,
      "Ġmon": 1512,
      "ĠÐµÐ¹": 1513,
      "Ġend": 1514,
      "Ġthings": 1515,
      "ĠÐ±ÐµÑģ": 1516,
      "Ġsign": 1517,
      "lem": 1518,
      "Ð´ÑĢ": 1519,
      "ng": 1520,
      "ĠÑĤÐµÐ±Ñı": 1521,
      "Ġmod": 1522,
      "ock": 1523,
      "ĠÐ²Ð¾Ñģ": 1524,
      "Ð½Ð¾ÑģÑĤÑĮ": 1525,
      "ced": 1526,
      "Ð¸Ð²ÑĪ": 1527,
      "pect": 1528,
      "Ġadd": 1529,
      "Ġcells": 1530,
      "In": 1531,
      "ĠÐĲÐ½": 1532,
      "ĠÐ±ÑĭÐ»Ð¸": 1533,
      "Ð½ÑĮ": 1534,
      "ody": 1535,
      "Ġsomething": 1536,
      "ek": 1537,
      "ÐºÐ¾Ð¼": 1538,
      "ĠÐ½ÐµÐ¿": 1539,
      "Ġ199": 1540,
      "Ð½Ð¸Ð¼": 1541,
      "Ġfact": 1542,
      "ÑĨÐ°": 1543,
      "Ðĵ": 1544,
      "Ð¾Ñħ": 1545,
      "Ġthrough": 1546,
      "Ġneed": 1547,
      "ÑģÑĤÐ²Ð°": 1548,
      "Ġcar": 1549,
      "stem": 1550,
      "ĠÑģÑĤÐ¾": 1551,
      "Ġinte": 1552,
      "ÑģÐºÐ¸Ð¹": 1553,
      "Ð°Ð¶Ð´": 1554,
      "Ð¸ÑĤÑģÑı": 1555,
      "ĠÐĿÐµ": 1556,
      "Ġagain": 1557,
      "chool": 1558,
      "cer": 1559,
      "Ð°Ð·ÑĭÐ²": 1560,
      "ÑĨÐµ": 1561,
      "ower": 1562,
      "ros": 1563,
      "Ð°Ð»Ð°ÑģÑĮ": 1564,
      "Ðķ": 1565,
      "Ġint": 1566,
      "ctions": 1567,
      "Ġread": 1568,
      "ave": 1569,
      "ĠÐŁÑĢ": 1570,
      "ather": 1571,
      "Ġreal": 1572,
      "ÑĢÐ°Ð·": 1573,
      "eral": 1574,
      "oci": 1575,
      "Ġnum": 1576,
      "ĠÑĤÐµÐ±Ðµ": 1577,
      "vern": 1578,
      "Ġsame": 1579,
      "Ġdifferent": 1580,
      "Ġshow": 1581,
      "Ð½Ð¾ÑģÑĤÐ¸": 1582,
      "amp": 1583,
      "ĠÐ½ÐµÐ¹": 1584,
      "Ġthree": 1585,
      "ÑĤÑĢ": 1586,
      "ĠÑģÑĤÑĢ": 1587,
      "Ð»Ñĭ": 1588,
      "ĠÐ½Ð¸ÑĩÐµÐ³Ð¾": 1589,
      "ĠClinton": 1590,
      "Ġeach": 1591,
      "ĠWe": 1592,
      "ĠÑģÐ»Ð¾Ð²": 1593,
      "ving": 1594,
      "Ġlook": 1595,
      "sh": 1596,
      "Ġid": 1597,
      "ince": 1598,
      "Ġtra": 1599,
      "ĠÐ½Ð¸Ð¼": 1600,
      "ĠÐ¿ÑĢÐ¾Ñģ": 1601,
      "thing": 1602,
      "ÑĢÐ°ÑĪ": 1603,
      "self": 1604,
      "ĠÐ´ÐµÐ½ÑĮ": 1605,
      "ÑĥÐ´Ð°": 1606,
      "Ġboth": 1607,
      "ĠÑĤÐ¾ÑĤ": 1608,
      "ĠÐ¿ÐµÑĢÐµÐ´": 1609,
      "Ġsur": 1610,
      "ĠÑĩÐ°Ñģ": 1611,
      "Ġanal": 1612,
      "Ġexpress": 1613,
      "].": 1614,
      "ĠUn": 1615,
      "Ð¸Ð»ÑĮ": 1616,
      "ĠÐ´Ð¾Ð»Ð¶": 1617,
      "ĠÐ´ÑĥÑĪ": 1618,
      "ists": 1619,
      "ÑıÐ½": 1620,
      "ĠÑģÑĩ": 1621,
      "ÑĩÐ°Ñģ": 1622,
      "Ġcent": 1623,
      "ĠÐ¼Ð¾Ð¹": 1624,
      "Ġseem": 1625,
      "ined": 1626,
      "Ġspec": 1627,
      "ĠÐ·Ð°Ð¿": 1628,
      "ĠÐ²ÑĢÐµÐ¼Ñı": 1629,
      "Ġset": 1630,
      "ically": 1631,
      "Ġrec": 1632,
      "gram": 1633,
      "man": 1634,
      "Ġtake": 1635,
      "Ð½Ð¸Ð±": 1636,
      "Ġsim": 1637,
      "ÐĽ": 1638,
      "Ð¾ÑģÑĤÐ¸": 1639,
      "Ð½Ð¸Ð±ÑĥÐ´ÑĮ": 1640,
      "Ġinclud": 1641,
      "ĠÑĥÐ±": 1642,
      "gan": 1643,
      "000": 1644,
      "not": 1645,
      "ÑıÐ·": 1646,
      "ject": 1647,
      "ĠÐĿÑĥ": 1648,
      "ck": 1649,
      "Ġfind": 1650,
      "Ġcount": 1651,
      "ĠÑħÐ¾ÑĢÐ¾ÑĪ": 1652,
      "ari": 1653,
      "Ġcour": 1654,
      "ĠÐŃÑĤÐ¾": 1655,
      "land": 1656,
      "Ġold": 1657,
      "Ð¾Ð´Ð°": 1658,
      "Ġgreat": 1659,
      "Ġstill": 1660,
      "ÑİÑĤ": 1661,
      "ury": 1662,
      "ÑıÐ¼": 1663,
      "ĠÐ±ÑĥÐ´ÐµÑĤ": 1664,
      "Ð¸ÑĤÐµÐ»ÑĮÐ½Ð¾": 1665,
      "Ð½ÑĭÐ¼Ð¸": 1666,
      "ĠÐºÐ½ÑıÐ·": 1667,
      "Ġlead": 1668,
      "ÐĹ": 1669,
      "Ġins": 1670,
      "ĠÐ¿ÑĢÐ¸Ð½": 1671,
      "Ġprov": 1672,
      "me": 1673,
      "Ð¸Ð»Ð¸ÑģÑĮ": 1674,
      "ients": 1675,
      "rol": 1676,
      "ĠÑĤÐ¾Ð¼": 1677,
      "eth": 1678,
      "Ġfun": 1679,
      "Ġent": 1680,
      "ĠÐŁÐµÑĤ": 1681,
      "Ð°ÐµÑĤÑģÑı": 1682,
      "az": 1683,
      "ĠÐ·Ð°Ð±": 1684,
      "ĠÐ²ÑģÑı": 1685,
      "ĠAl": 1686,
      "ĠÑįÑĤÐ¾Ð³Ð¾": 1687,
      "lect": 1688,
      "ĠÐ²ÑģÐµÑħ": 1689,
      "Ġ10": 1690,
      "Ġdata": 1691,
      "inal": 1692,
      "ĠÐ½Ð°Ð¼": 1693,
      "ĠÑģÐ¼Ð¾ÑĤÑĢ": 1694,
      "Ð½ÐµÐµ": 1695,
      "ÑĢÐ°Ñģ": 1696,
      "Ġthing": 1697,
      "Ġchild": 1698,
      "ĠÑĩÑĥÐ²ÑģÑĤÐ²": 1699,
      "ĠÐ¿Ð¾ÑĤÐ¾Ð¼Ñĥ": 1700,
      "Ġlast": 1701,
      "ox": 1702,
      "Ð¿ÐµÑĢ": 1703,
      "Ð°Ð½Ð¸Ñı": 1704,
      "ases": 1705,
      "ĠWh": 1706,
      "with": 1707,
      "Ð¾ÑģÑĤÑĮ": 1708,
      "AT": 1709,
      "ĠÐ¿Ð¾Ð·": 1710,
      "ĠÐ½ÐµÐ²": 1711,
      "Ġcor": 1712,
      "ĠÐ²Ð¾Ð»": 1713,
      "ÑĥÑģ": 1714,
      "fl": 1715,
      "Ġown": 1716,
      "Ġresult": 1717,
      "velop": 1718,
      "ÑĭÑĩ": 1719,
      "ĠÐºÐ°Ð·": 1720,
      "ĠÑģÐ´ÐµÐ»": 1721,
      "Ð£": 1722,
      "Ġinterest": 1723,
      "ĠAn": 1724,
      "Ð¼Ð¾ÑĤÑĢ": 1725,
      "ĠÐ¸ÑģÐ¿": 1726,
      "Ġmin": 1727,
      "arr": 1728,
      "ange": 1729,
      "ĠÐ½Ð°Ðº": 1730,
      "ef": 1731,
      "Ð¸Ð½ÑĥÑĤ": 1732,
      "Ġear": 1733,
      "Ġpoint": 1734,
      "Ð»Ð°Ð´": 1735,
      "Ġ7": 1736,
      "view": 1737,
      "ices": 1738,
      "ĠÐºÐ¾Ð»": 1739,
      "ÐºÐ¸Ð¹": 1740,
      "Ġtest": 1741,
      "Ġbeing": 1742,
      "Ġke": 1743,
      "ÑĭÐ»": 1744,
      "vent": 1745,
      "ĠÐ±Ð¾Ð³": 1746,
      "ĠÐ¾Ð´Ð¸Ð½": 1747,
      "ÐµÑĢÑĤ": 1748,
      "ution": 1749,
      "ÑĥÐ¹": 1750,
      "ÐŁÑĢ": 1751,
      "ants": 1752,
      "ĠÐļÐ°Ðº": 1753,
      "Ġschool": 1754,
      "Ġcr": 1755,
      "Ġbefore": 1756,
      "ĠÐ§ÑĤÐ¾": 1757,
      "Ġput": 1758,
      "co": 1759,
      "erson": 1760,
      "âĢĿ": 1761,
      "ÐºÑĢ": 1762,
      "Ġtri": 1763,
      "ton": 1764,
      "Ġsystem": 1765,
      "Ġeffect": 1766,
      "akes": 1767,
      "ĠÐ¾Ð¿ÑıÑĤÑĮ": 1768,
      "oney": 1769,
      "ways": 1770,
      "Ġfound": 1771,
      "ÐµÑĢÑĪ": 1772,
      "orm": 1773,
      "by": 1774,
      "ÑģÑĤÐ²ÐµÐ½": 1775,
      "ids": 1776,
      "'ll": 1777,
      "ĠAs": 1778,
      "ĠÐ·Ð°Ð²": 1779,
      "ĠÐĲÐ»": 1780,
      "ĠÐ¶ÐµÐ»": 1781,
      "Ġmade": 1782,
      "Ġbel": 1783,
      "ÑģÑĤÑĥÐ¿": 1784,
      "ves": 1785,
      "Ġproblem": 1786,
      "alth": 1787,
      "Ġlar": 1788,
      "ĠÐ³Ð´Ðµ": 1789,
      "ĠÐºÑĢÐ°Ñģ": 1790,
      "Ġdist": 1791,
      "tr": 1792,
      "Ġmight": 1793,
      "Ð°Ð½Ð¸Ðµ": 1794,
      "Ð°ÑĤÐµÐ»ÑĮ": 1795,
      "ÐµÐ½Ð¸Ð¸": 1796,
      "Ġ9": 1797,
      "Ġdef": 1798,
      "Ġbig": 1799,
      "Ġday": 1800,
      "ĠÐ½ÐµÐ´": 1801,
      "ĠÐ¿ÐµÑĢÐ²": 1802,
      "Ġgenes": 1803,
      "Ġgroup": 1804,
      "ĠÐ¼ÑĥÐ¶": 1805,
      "Ġnever": 1806,
      "Ġacc": 1807,
      "Ġap": 1808,
      "aking": 1809,
      "Ġmed": 1810,
      "Ġaround": 1811,
      "Ġed": 1812,
      "Ġguess": 1813,
      "Ð»Ð¾Ð²": 1814,
      "ĠÑĢÐ°Ð´": 1815,
      "Ġdec": 1816,
      "Ġusing": 1817,
      "ize": 1818,
      "ract": 1819,
      "Ġincre": 1820,
      "ÐµÐ³Ð´Ð°": 1821,
      "Ġext": 1822,
      "br": 1823,
      "ĠÑĥÐ³": 1824,
      "ters": 1825,
      "ified": 1826,
      "ĠÑĥÐ¿": 1827,
      "Ġhome": 1828,
      "arch": 1829,
      "gal": 1830,
      "ĠÐ¡ÑĤ": 1831,
      "Ð¾ÑĤÐ¸Ð²": 1832,
      "ially": 1833,
      "Ġsays": 1834,
      "Ð»Ðµ": 1835,
      "yp": 1836,
      "ĠÐ½ÐµÑģ": 1837,
      "ĠÐ²ÐµÐ»": 1838,
      "uss": 1839,
      "Ġant": 1840,
      "ense": 1841,
      "ÐĿÐµ": 1842,
      "Ġchar": 1843,
      "Ġresp": 1844,
      "ÐµÐ»Ð¾": 1845,
      "vernment": 1846,
      "Ð¸Ð»Ð¾ÑģÑĮ": 1847,
      "led": 1848,
      "ÐĿÐ¾": 1849,
      "here": 1850,
      "Ġexam": 1851,
      "Ġ'": 1852,
      "ĠÐ¾Ð³": 1853,
      "Ġsequ": 1854,
      "ollow": 1855,
      "ÑĤÐ¾Ð²": 1856,
      "Ġbook": 1857,
      "cond": 1858,
      "Ġstory": 1859,
      "Ġcare": 1860,
      "Ġdidn": 1861,
      "Ġstate": 1862,
      "ization": 1863,
      "ĠÐ·Ð²": 1864,
      "ying": 1865,
      "Ð¾ÑĢÐ¾Ð²": 1866,
      "ĠÑħÐ¾Ñĩ": 1867,
      "'d": 1868,
      "Ġlaw": 1869,
      "ÐµÑģÑĤÑĮ": 1870,
      "aper": 1871,
      "str": 1872,
      "Ġbr": 1873,
      "ĠÐ¿ÑĢÐ¾Ð´": 1874,
      "Ġplay": 1875,
      "ribut": 1876,
      "ale": 1877,
      "ness": 1878,
      "up": 1879,
      "Ġstart": 1880,
      "ysis": 1881,
      "Ġart": 1882,
      "Ðł": 1883,
      "ĠÐ²Ð°ÑĪ": 1884,
      "ĠÐ¶Ð¸Ð²": 1885,
      "ĠÐ³Ð¾Ð»Ð¾Ñģ": 1886,
      "formation": 1887,
      "ÑıÑī": 1888,
      "ĠFor": 1889,
      "ĠÐŀÐ½Ð°": 1890,
      "Ġ18": 1891,
      "Ð½Ð¸ÑĨ": 1892,
      "Ġrep": 1893,
      "Ð¾Ð²Ð°Ð»": 1894,
      "ĠAnd": 1895,
      "lp": 1896,
      "ÑĩÐ¸Ðº": 1897,
      "ĠÐ½Ð°Ð´Ð¾": 1898,
      "min": 1899,
      "ains": 1900,
      "ives": 1901,
      "oun": 1902,
      "ĠâĢľ": 1903,
      "ÐµÐ½Ð¸ÐµÐ¼": 1904,
      "ÐµÑĢÐ°": 1905,
      "Ð»ÑĭÐ±": 1906,
      "Ġfew": 1907,
      "Ġhum": 1908,
      "Ġstr": 1909,
      "ĠÐ²ÑģÐµÐ¼": 1910,
      "!..": 1911,
      "ÐµÑģÑĮ": 1912,
      "Ġless": 1913,
      "Th": 1914,
      "Ð¾ÑĩÑĮ": 1915,
      "ĠÑįÑĤÐ¾ÑĤ": 1916,
      "Ġnumber": 1917,
      "ĠÑģÐ¿ÑĢÐ¾Ñģ": 1918,
      "ither": 1919,
      "Ġprogram": 1920,
      "lear": 1921,
      "ten": 1922,
      "ÑıÐ¶": 1923,
      "Ġmov": 1924,
      "read": 1925,
      "ĠÑģÐ²Ð¾ÐµÐ¹": 1926,
      "ĠSe": 1927,
      "ĠÐ¼Ð¸Ð½ÑĥÑĤ": 1928,
      "ĠÑĢÐµÑĪ": 1929,
      "Ð¸Ñİ": 1930,
      "Ġsmall": 1931,
      "ĠÐ³Ð¾Ð²Ð¾ÑĢÐ¸Ð»": 1932,
      "ÑĤÐ¾ÑĢÐ¾Ð½": 1933,
      "Ġ$": 1934,
      "Ġel": 1935,
      "Ġwhile": 1936,
      "Ð°ÑĢÑĮ": 1937,
      "ÐºÐ°Ð¼Ð¸": 1938,
      "Ġmark": 1939,
      "ĠÐ¥": 1940,
      "ately": 1941,
      "ÑĪÐµÐ»": 1942,
      "ĠÑĤÐ°Ð¼": 1943,
      "atch": 1944,
      "use": 1945,
      "ĠÐĴÑĭ": 1946,
      "uff": 1947,
      "Ġpublic": 1948,
      "ĠÐ³Ð»Ð°Ð·Ð°": 1949,
      "igure": 1950,
      "Ġlevel": 1951,
      "ĠÐ¿Ð¾Ð¿": 1952,
      "ĠYork": 1953,
      "ÑıÐ²": 1954,
      "ward": 1955,
      "med": 1956,
      "ner": 1957,
      "Ġrequ": 1958,
      "ĠÑĤÑĥÑĤ": 1959,
      "ĠÐ¸Ð·Ð²": 1960,
      "aj": 1961,
      "Ð¸ÑĩÐµÑģÐº": 1962,
      "Ġprobably": 1963,
      "Ð½Ð¾Ñİ": 1964,
      "Ġmem": 1965,
      "ĠÑģÑĤÐ¾Ð»": 1966,
      "Ġappro": 1967,
      "ĠÑĥÐ»ÑĭÐ±": 1968,
      "ÐµÑİ": 1969,
      "Ġgene": 1970,
      "ĠÐ´ÐµÐ²": 1971,
      "ĠÑĥÑĩ": 1972,
      "ĠÑĤÐ¾Ð³Ð´Ð°": 1973,
      "Ð¾Ð¼Ð½": 1974,
      "duc": 1975,
      "Ġexper": 1976,
      "Ġmoney": 1977,
      "Ġval": 1978,
      "ĠÑĤÐ¾Ð¶Ðµ": 1979,
      "Ġwr": 1980,
      "ggest": 1981,
      "ĠÐ¿ÑĢÐ¸Ð²": 1982,
      "ute": 1983,
      "ĠÑĥÐ·": 1984,
      "ĠÐ´Ð°Ð²": 1985,
      "Ġloc": 1986,
      "Ġ8": 1987,
      "ĠÐĿÐ¸Ðº": 1988,
      "ĠÑģÐ¸Ð´": 1989,
      "uth": 1990,
      "Ð´ÐµÑģÑĮ": 1991,
      "Ġactiv": 1992,
      "Ġest": 1993,
      "ĠÐ½Ð¸Ñħ": 1994,
      "Ð¾Ð²Ð¾Ð»ÑĮ": 1995,
      "Ġpercent": 1996,
      "less": 1997,
      "ric": 1998,
      "ital": 1999,
      "Ð½Ð°ÑĤ": 2000,
      "ĠÐ¿Ð¾Ð³": 2001,
      "conom": 2002,
      "Ġpay": 2003,
      "Ġdi": 2004,
      "ÑĭÐ¼Ð¸": 2005,
      "Ð¾Ð»Ð¶": 2006,
      "no": 2007,
      "app": 2008,
      "ĠRe": 2009,
      "serv": 2010,
      "ĠÐºÑĤÐ¾": 2011,
      "ides": 2012,
      "ĠÑģÐ²Ð¾Ñİ": 2013,
      "Ġret": 2014,
      "ĠÐ¶Ð¸Ð·Ð½ÑĮ": 2015,
      "ĠÐ»ÑĥÑĩ": 2016,
      "ÑģÐµÐ¼": 2017,
      "ired": 2018,
      "Ġinst": 2019,
      "ision": 2020,
      "ĠÐ²ÑģÐµÐ³Ð´Ð°": 2021,
      "ĠÐ´ÐµÐ»Ð¾": 2022,
      "der": 2023,
      "ĠÐ½Ð¾Ð²": 2024,
      "ÑĢÐ°Ð¶": 2025,
      "ĠÐ¶Ð¸Ð·Ð½Ð¸": 2026,
      "Ġstudy": 2027,
      "ted": 2028,
      "ĠÐ±ÑĥÐ´ÑĤÐ¾": 2029,
      "Ġduring": 2030,
      "ulation": 2031,
      "cript": 2032,
      "ared": 2033,
      "Ð¸Ð½Ð¾Ð²": 2034,
      "ĠÐ²ÐµÐ´ÑĮ": 2035,
      "ĠÐ½ÐµÐµ": 2036,
      "Ġfar": 2037,
      "ĠÎ": 2038,
      "ÐµÑģÑı": 2039,
      "Ġpret": 2040,
      "ĠÐºÐ¾ÑĤÐ¾ÑĢÑĭÐ¹": 2041,
      "rence": 2042,
      "Ġcomple": 2043,
      "ĠÐ¿Ð¾ÑĤÐ¾Ð¼": 2044,
      "Ġhelp": 2045,
      "Ġsl": 2046,
      "ĠÐ±Ð¾Ð»ÑĮÑĪ": 2047,
      "ĠÐ»ÐµÑĤ": 2048,
      "ĠÑģÐ»ÑĥÑĩ": 2049,
      "II": 2050,
      "ilar": 2051,
      "ished": 2052,
      "Ġlife": 2053,
      "ÐµÑĢÐ¸": 2054,
      "ĠÐ¼Ð¾Ð»Ð¾Ð´": 2055,
      "ĠÑįÑĤÐ¾Ð¼": 2056,
      "Ġform": 2057,
      "fer": 2058,
      "ĠÑģÑĤÐ¾ÑĢÐ¾Ð½": 2059,
      "Ġtalk": 2060,
      "Ð¸Ð»Ð¾": 2061,
      "ĠÐ´Ð¾ÑĢ": 2062,
      "Ġser": 2063,
      "Ġworld": 2064,
      "ages": 2065,
      "ĠÐ²Ð·Ð³": 2066,
      "ÑıÑģ": 2067,
      "ĠÑģÐ¾Ð²ÐµÑĢÑĪ": 2068,
      "Ġop": 2069,
      "ĠÐ·Ð½Ð°Ñİ": 2070,
      "Ġ0": 2071,
      "Ġprodu": 2072,
      "Ð¸ÑıÑĤ": 2073,
      "Ġfamily": 2074,
      "ross": 2075,
      "Ġanother": 2076,
      "ĠÐ³Ð¾ÑģÐ¿": 2077,
      "Ġcome": 2078,
      "io": 2079,
      "Ð¾Ð½ÐµÑĨ": 2080,
      "illion": 2081,
      "Ġdevelop": 2082,
      "body": 2083,
      "Ġpartic": 2084,
      "Ġwom": 2085,
      "ĠÑģÐºÐ°Ð·Ð°Ð»Ð°": 2086,
      "ĠÐ²ÑĭÑģ": 2087,
      "most": 2088,
      "Ġperson": 2089,
      "Ġfour": 2090,
      "Ġimport": 2091,
      "ÐµÐ½Ð°": 2092,
      "Ð°Ð½Ð°": 2093,
      "ands": 2094,
      "ĠÐ²ÐµÑĩ": 2095,
      "Ġrun": 2096,
      "though": 2097,
      "ĠÐ½ÑĥÐ¶": 2098,
      "ĠÑĥÑģ": 2099,
      "sp": 2100,
      "ĠÐ·ÐµÐ¼": 2101,
      "Ġserv": 2102,
      "Ġpop": 2103,
      "ĠÑģÑĭ": 2104,
      "ĠÐºÐ¾ÑĤÐ¾ÑĢÑĭÐµ": 2105,
      "ned": 2106,
      "bers": 2107,
      "Ġexpl": 2108,
      "par": 2109,
      "ÑĭÐº": 2110,
      "ĠÐºÐ°ÑĢ": 2111,
      "19": 2112,
      "ĠÐ½Ð¾Ð³": 2113,
      "Ġche": 2114,
      "ĠÐ±Ð¾Ð»ÐµÐµ": 2115,
      "Ġalways": 2116,
      "ĠÐ²ÐµÑģ": 2117,
      "ĠÐ¸Ð½": 2118,
      "ĠÐ±Ð¾Ð»ÑĮÑĪÐµ": 2119,
      "Ġpolit": 2120,
      "ble": 2121,
      "ature": 2122,
      "ĠÑģÐ²ÐµÑĤ": 2123,
      "Â».": 2124,
      "ats": 2125,
      "acter": 2126,
      "ĠÐ¼Ð°Ð»": 2127,
      "ĠÐºÐ¾ÑĢ": 2128,
      "ĠÐ¾ÑģÐ¾Ð±": 2129,
      "ĠÑĢÐ°Ð±": 2130,
      "Ġcap": 2131,
      "Ġweek": 2132,
      "Ð°Ð¹ÑĤÐµ": 2133,
      "ÑĥÐ»": 2134,
      "Ð¾Ð²ÑĮ": 2135,
      "ÐµÐ½Ð½ÑĭÐ¹": 2136,
      "Ġbas": 2137,
      "ĠAmerican": 2138,
      "Ð´ÐµÑĤ": 2139,
      "ĠÑĤÐ¾Ð»": 2140,
      "Ġagainst": 2141,
      "ology": 2142,
      "ÑıÑģÑĮ": 2143,
      "Ð½Ð°Ðº": 2144,
      "ÑģÐºÐ¾Ð³Ð¾": 2145,
      "Ġcur": 2146,
      "ĠCom": 2147,
      "Ð½Ñİ": 2148,
      "ural": 2149,
      "ĠÑģÐ¾Ð»": 2150,
      "ĠÑģÐ»ÑĭÑĪ": 2151,
      "ĠÑĢÐ°Ð·Ð²": 2152,
      "ĠÑĢÐ¾Ð´": 2153,
      "ÐµÐ¶Ð´Ñĥ": 2154,
      "ĠÑĢÐ°ÑģÑģÐº": 2155,
      "irect": 2156,
      "ĠÐ¾ÑĤÐ²ÐµÑĩ": 2157,
      "ÐµÑģÑĤÐµ": 2158,
      "Ġposs": 2159,
      "ÑģÐºÐ¾Ð»ÑĮÐºÐ¾": 2160,
      "Ġcontrol": 2161,
      "Ġele": 2162,
      "ec": 2163,
      "Ð¾ÑĤÑĮ": 2164,
      "Ġword": 2165,
      "ificant": 2166,
      "atic": 2167,
      "ÑĥÑī": 2168,
      "Ð¾ÐºÐ¾Ð¹": 2169,
      "ration": 2170,
      "vious": 2171,
      "ĠÐ¿ÑĢÐµÐ¶": 2172,
      "arent": 2173,
      "Ġhard": 2174,
      "ĠÑįÑĤÐ¸": 2175,
      "ĠTimes": 2176,
      "ĠÐ»ÑİÐ´ÐµÐ¹": 2177,
      "iness": 2178,
      "Ġcolle": 2179,
      "ÑģÐºÐ¾Ð¹": 2180,
      "ÑĢÐ°ÑĦ": 2181,
      "Ġfollow": 2182,
      "ÐµÐ¹ÑģÑĤÐ²": 2183,
      "Ð½ÑĥÐ²": 2184,
      "ger": 2185,
      "lish": 2186,
      "xt": 2187,
      "els": 2188,
      "Ġident": 2189,
      "Ġplace": 2190,
      "Ð¸Ð½Ñĭ": 2191,
      "ley": 2192,
      "ÑĥÑĪÐºÐ°": 2193,
      "ĠÐ¿Ð¾ÑģÐ»Ðµ": 2194,
      "ÑĩÐ½Ð¾": 2195,
      "Ð¾Ð²Ð°ÑĢ": 2196,
      "ÑģÑĤÑĢÐ¾": 2197,
      "ĠÐ¿Ð¾Ð½Ð¸Ð¼": 2198,
      "Ġexpression": 2199,
      "Ġpretty": 2200,
      "Ġlet": 2201,
      "ĠÐ¼Ð½Ð¾Ð³Ð¾": 2202,
      "Ġgovernment": 2203,
      "Ġsuggest": 2204,
      "Ġpatients": 2205,
      "Ġtax": 2206,
      "ĠÑħÐ¾ÑĤÐµÐ»": 2207,
      "chn": 2208,
      "Ġsince": 2209,
      "ason": 2210,
      "Ð§ÑĤÐ¾": 2211,
      "Ð°Ð³Ð¾": 2212,
      "Ġsit": 2213,
      "ĠÐ´Ð¾Ð±ÑĢ": 2214,
      "Ġvis": 2215,
      "ajor": 2216,
      "ĠÐ·Ð°Ð´": 2217,
      "ÐŀÐ½": 2218,
      "yl": 2219,
      "Ġquest": 2220,
      "Ġcost": 2221,
      "ĠÐ²ÐµÑģÑĮ": 2222,
      "ĠÐ¢Ð°Ðº": 2223,
      "Ð¸Ñī": 2224,
      "ÑĥÐº": 2225,
      "rel": 2226,
      "ĠÐ¼Ð¾Ð»Ñĩ": 2227,
      "ĠÐ·Ð´ÐµÑģÑĮ": 2228,
      "Ġleast": 2229,
      "Ð°ÑİÑī": 2230,
      "Ġcourse": 2231,
      "orn": 2232,
      "Ġdem": 2233,
      "su": 2234,
      "Ġmain": 2235,
      "Ġdep": 2236,
      "ĠÐĴÐ¾ÑĤ": 2237,
      "Ð²Ð°ÑĤ": 2238,
      "Ġinc": 2239,
      "Ġpri": 2240,
      "Ð½Ð°Ñĩ": 2241,
      "ivid": 2242,
      "Ġgl": 2243,
      "hip": 2244,
      "ah": 2245,
      "ĠÐ¸Ñģ": 2246,
      "reet": 2247,
      "ÑĤÐ°": 2248,
      "ĠÐ¿Ð¾Ð±": 2249,
      "Ġhapp": 2250,
      "Ġ20": 2251,
      "ĠÑģÐ¾Ñģ": 2252,
      "atter": 2253,
      "ĠÐ¿Ð¾ÑģÐ»ÐµÐ´": 2254,
      "Ð»Ð¾Ð½": 2255,
      "ĠÐ»Ð¸ÑĨÐ¾": 2256,
      "Ġcase": 2257,
      "Ġbus": 2258,
      "ĠÐ¾ÑģÑĤÐ°Ð²": 2259,
      "ional": 2260,
      "Ġdisc": 2261,
      "ĠÐ¿ÑĢÐ¾Ð´Ð¾Ð»Ð¶": 2262,
      "pre": 2263,
      "ĠÐ¢Ñĭ": 2264,
      "idence": 2265,
      "Ð¾ÑĪÐµÐ»": 2266,
      "ĠÑģÑĤÑĢÐ°Ð½": 2267,
      "ĠÐ´ÐµÑĢ": 2268,
      "raph": 2269,
      "Ġmil": 2270,
      "Ð¿Ð¾Ð»": 2271,
      "ĠÑĥÐ¶Ð°Ñģ": 2272,
      "inc": 2273,
      "ĠÐ½Ð°Ð·": 2274,
      "10": 2275,
      "ug": 2276,
      "ĠÐ¼Ð¸Ð»": 2277,
      "Ġchildren": 2278,
      "val": 2279,
      "ĠÑģÐºÐ°Ð·Ð°ÑĤÑĮ": 2280,
      "ium": 2281,
      "ĠÑģÑĤÐ°Ð»": 2282,
      "ĠÐ¸ÑģÐº": 2283,
      "ĠÑĩÐµÐ³Ð¾": 2284,
      "ĠÐ±ÑĢÐ°ÑĤ": 2285,
      "Ð½ÑĥÐ»ÑģÑı": 2286,
      "ĠÑģÐµÐ¹": 2287,
      "Ġbo": 2288,
      "cell": 2289,
      "ĠÐ¿Ð¾Ð¶": 2290,
      "ĠÐ±ÑĢ": 2291,
      "orth": 2292,
      "rug": 2293,
      "ront": 2294,
      "Ġsure": 2295,
      "ĠÑģÐ¾Ð²ÑģÐµÐ¼": 2296,
      "Ð¾Ð»Ð¾Ð´": 2297,
      "ling": 2298,
      "ĠÐ¶ÐµÐ½Ñī": 2299,
      "Ġanalysis": 2300,
      "Ġfin": 2301,
      "Ð¸Ð²Ð°Ñı": 2302,
      "Ġfil": 2303,
      "ash": 2304,
      "Ġwent": 2305,
      "ences": 2306,
      "ĠÐ²ÑģÑĤÑĢ": 2307,
      "ĠÐ²Ð¼": 2308,
      "resident": 2309,
      "ertain": 2310,
      "ÑĢÐ°Ñī": 2311,
      "Ã©": 2312,
      "Ð°ÐºÐ¸": 2313,
      "ety": 2314,
      "ĠÐ½ÐµÐ±": 2315,
      "ole": 2316,
      "iven": 2317,
      "ank": 2318,
      "Ġcamp": 2319,
      "ĠÑģÐºÐ¾ÑĢ": 2320,
      "Ġwar": 2321,
      "Ġrecent": 2322,
      "ĠÑĤÐ²Ð¾": 2323,
      "ruct": 2324,
      "ĠRep": 2325,
      "stand": 2326,
      "ĠÐ»ÑİÐ´Ð¸": 2327,
      "Ġgener": 2328,
      "Ġav": 2329,
      "ÑİÐ±": 2330,
      "ality": 2331,
      "Ġplan": 2332,
      ".,": 2333,
      "ashing": 2334,
      "ĠÑĢÑĥÐºÐ¸": 2335,
      "bed": 2336,
      "hib": 2337,
      "Ġ200": 2338,
      "Ġlarge": 2339,
      "ged": 2340,
      "like": 2341,
      "Ġcalled": 2342,
      "ÑĥÐ½": 2343,
      "que": 2344,
      "ÑĢÐ¾Ð¼": 2345,
      "ĠÐ¾Ð±ÑĬ": 2346,
      "mun": 2347,
      "Ġpar": 2348,
      "Ġmonth": 2349,
      "Ð½Ð¾Ð¼Ñĥ": 2350,
      "ĠÑĥÐ²Ð¸Ð´": 2351,
      "Ġfive": 2352,
      "ĠÐ¿Ð¾ÑĩÑĤÐ¸": 2353,
      "Ġbest": 2354,
      "ĠIs": 2355,
      "itional": 2356,
      "ĠInd": 2357,
      "Ġhist": 2358,
      "anc": 2359,
      "reg": 2360,
      "Ġstand": 2361,
      "ÐļÐ°Ðº": 2362,
      "Ġactually": 2363,
      "ĠÐ½Ð°ÑĢÐ¾Ð´": 2364,
      "ĠÐĲÐ»ÐµÐº": 2365,
      "ians": 2366,
      "Ġbetter": 2367,
      "ĠÑĢÑĥÐºÑĥ": 2368,
      "ĠÐºÐ½ÑıÐ·ÑĮ": 2369,
      "Ð¸Ð½Ðµ": 2370,
      "itor": 2371,
      "riend": 2372,
      "Â»,": 2373,
      "ĠÐºÐ°Ð¶Ð´": 2374,
      "ush": 2375,
      "ĠÐ²ÑģÐµÐ³Ð¾": 2376,
      "Ð²ÐµÑĢ": 2377,
      "ĠÐĺÐ²Ð°Ð½Ð¾Ð²": 2378,
      "ĠÐĿÐµÑĤ": 2379,
      "Ġhuman": 2380,
      "Ġdom": 2381,
      "ÑĤÐµÑĢ": 2382,
      "ĠLe": 2383,
      "ĠÐ³Ð¾Ð²Ð¾ÑĢÐ¸ÑĤ": 2384,
      "ype": 2385,
      "ĠÐ¿ÑĢÐ¸Ð±": 2386,
      "ering": 2387,
      "yes": 2388,
      "ĠÐ·Ð°Ñģ": 2389,
      "Ġfeel": 2390,
      "Ġtell": 2391,
      "ĠÐ½ÐµÑģÐºÐ¾Ð»ÑĮÐºÐ¾": 2392,
      "Ġbelie": 2393,
      "Ġinformation": 2394,
      "ĠÑĢÐ°ÑģÑģ": 2395,
      "Ġcountry": 2396,
      "ÐµÑģÑĤÐ¾": 2397,
      "they": 2398,
      "ĠÑĢÐ°Ð·Ð³": 2399,
      "Ġclass": 2400,
      "Ġimportant": 2401,
      "resent": 2402,
      "Ġsecond": 2403,
      "Ġthought": 2404,
      "........": 2405,
      "ĠÑģÐ½": 2406,
      "ĠÐ½Ð°Ð²": 2407,
      "cc": 2408,
      "ethod": 2409,
      "outh": 2410,
      "Ġ12": 2411,
      "ĠÐ´Ð¾ÑĢÐ¾Ð³": 2412,
      "Ġprof": 2413,
      "Ð¸Ð¼Ð¾": 2414,
      "Ġhouse": 2415,
      "Ġturn": 2416,
      "ÑĢÐ¸": 2417,
      "ĠÑģÐ»Ð¾Ð²Ð°": 2418,
      "Ġdoesn": 2419,
      "ination": 2420,
      "ĠÐºÐ°ÐºÐ¾Ð¹": 2421,
      "plic": 2422,
      "Ġterm": 2423,
      "ÑģÑĤÐ²ÐµÐ½Ð½Ð¾": 2424,
      "ĠÐ¿ÑĢÐ¾ÑĤÐ¸Ð²": 2425,
      "ÑĢÐ°Ð½ÑĨ": 2426,
      "itive": 2427,
      "Ð°Ð½ÑĮ": 2428,
      "veral": 2429,
      "ffic": 2430,
      "Ġeconom": 2431,
      "Ġwhether": 2432,
      "Ġkeep": 2433,
      "Ð²ÐµÑĤ": 2434,
      "Ð¼Ð°": 2435,
      "Ġadv": 2436,
      "att": 2437,
      "ĠÐ±Ð°ÑĢ": 2438,
      "Ġhand": 2439,
      "Ġsupport": 2440,
      "Ð¾ÐºÐ¾": 2441,
      "ĠÐ¼Ð¾Ð¶Ð½Ð¾": 2442,
      "Ġrest": 2443,
      "ĠÐ·Ð»": 2444,
      "ator": 2445,
      "Ð»Ð°Ñģ": 2446,
      "ann": 2447,
      "Ġeither": 2448,
      "ĠÐĲÐ½Ð´ÑĢ": 2449,
      "Ġchang": 2450,
      "Ð°Ð½Ð´": 2451,
      "ĠÐ¿Ð¾Ð»Ð¾Ð¶": 2452,
      "Ġwhy": 2453,
      "ĠÑģÐ¸Ð»": 2454,
      "ĠÑģÑĤÑĢÐ°": 2455,
      "ier": 2456,
      "ÐºÐ°Ñħ": 2457,
      "Ð°ÑģÑĤÑĮ": 2458,
      "Ġmajor": 2459,
      "ĠÑĥÑĤ": 2460,
      "do": 2461,
      "Ġseems": 2462,
      "Ġever": 2463,
      "ĠÐ±ÐµÐ´": 2464,
      "Ġ15": 2465,
      "ĠÐŁÐ°Ð²": 2466,
      "Ġdoing": 2467,
      "ÑĥÑģÐº": 2468,
      "ience": 2469,
      "rop": 2470,
      "ured": 2471,
      "ĠÐ¿ÑĢÐ¸Ðº": 2472,
      "ĠÐ¼Ð°ÑĤ": 2473,
      "Ġanything": 2474,
      "ĠÐ³Ð»ÑıÐ´": 2475,
      "ashington": 2476,
      "ral": 2477,
      "Ġappe": 2478,
      "Ġcrit": 2479,
      "nal": 2480,
      "Ð½ÑĥÐ»Ð°": 2481,
      "epend": 2482,
      "ĠUnited": 2483,
      "ency": 2484,
      "Ġinvest": 2485,
      "ÐµÑģÑĤÐ¸": 2486,
      "Ġcity": 2487,
      "ided": 2488,
      "ability": 2489,
      "ior": 2490,
      "ina": 2491,
      "ĠÐ²Ð¾Ð¿": 2492,
      "ĠAr": 2493,
      "Ð°Ð½ÑĤ": 2494,
      "Ð½ÑĥÑĤÑĮ": 2495,
      "Ð°ÐµÐ¼": 2496,
      "alf": 2497,
      "ĠÐ¼ÐµÐ¶Ð´Ñĥ": 2498,
      "ĠÑĤÐ¸Ñħ": 2499,
      "Ġpresent": 2500,
      "ird": 2501,
      "ĠÐ²Ð¾ÑĢ": 2502,
      "used": 2503,
      "Ð¾Ð²Ð°ÑĤÑĮ": 2504,
      "Ġmust": 2505,
      "ÐµÐ»Ñı": 2506,
      "ĠÐ¾ÑĤÐ´": 2507,
      "ĠÐ½Ð¸ÐºÐ¾Ð³Ð´Ð°": 2508,
      "ÑĪÐ¸Ð¹": 2509,
      "icro": 2510,
      "ones": 2511,
      "ĠÐ¾ÑĤÐ²ÐµÑĤ": 2512,
      "Ġtreat": 2513,
      "ĠÑģÐ²Ð¾ÐµÐ³Ð¾": 2514,
      "ĠÐ±ÑĭÐ²": 2515,
      "Ġpaper": 2516,
      "Ġkids": 2517,
      "ĠÐ´Ð²Ð°": 2518,
      "Ð»Ð¸ÑģÑĮ": 2519,
      "ĠÐ´ÑĢÑĥÐ³Ð¾Ð¹": 2520,
      "Ġpur": 2521,
      "Ġbi": 2522,
      "Ġprom": 2523,
      "Ġvari": 2524,
      "ĠÐ²ÑģÐ¿": 2525,
      "ĠHow": 2526,
      "ening": 2527,
      "ÐµÐ½ÑĤ": 2528,
      "Ġcy": 2529,
      "ĠÐ·Ð°Ð³": 2530,
      "Ġstuff": 2531,
      "Ð¾Ñī": 2532,
      "ÑĥÑĤÑĮ": 2533,
      "Ð²Ð¾ÑĢ": 2534,
      "ĠÐ¸Ð³": 2535,
      "Ġdays": 2536,
      "ĠÐ·Ð°Ð¼ÐµÑĤ": 2537,
      "ows": 2538,
      "ĠÐºÐ¾Ð¼Ð½Ð°ÑĤ": 2539,
      "Ð¼Ðµ": 2540,
      "Ġhead": 2541,
      "ÐµÐ½Ñĭ": 2542,
      "was": 2543,
      "ĠÐĿÐ¸ÐºÐ¾Ð»": 2544,
      "itions": 2545,
      "ĠÐ¨": 2546,
      "ĠÐ¾ÑĤÐº": 2547,
      "ising": 2548,
      "ĠThere": 2549,
      "ĠÑģÐµÑĢÐ´ÑĨÐµ": 2550,
      "ĠÐ¿ÑĢÐ¾ÑĪ": 2551,
      "ĠÐĺÐ²Ð°Ð½": 2552,
      "Ġconf": 2553,
      "Ġwithout": 2554,
      "Ġprotein": 2555,
      "Ġcult": 2556,
      "ĠIf": 2557,
      "ĠÐ¿ÑĢÐ¾ÑģÑĤ": 2558,
      "Ġref": 2559,
      "Ð¾Ð¶Ð´": 2560,
      "ĠÐµÐ´": 2561,
      "Ġperform": 2562,
      "ĠÐ½Ð°ÐºÐ¾Ð½ÐµÑĨ": 2563,
      "Ġ...": 2564,
      "ÑĥÐ¶Ð´": 2565,
      "ÑĥÐµÑĤ": 2566,
      "ÑĢÑĭÐ²": 2567,
      "ames": 2568,
      "Ġonce": 2569,
      "osed": 2570,
      "sc": 2571,
      "ĠÐ³Ð¾ÑģÐ¿Ð¾Ð´": 2572,
      "ĠÑħÐ¾ÑĢÐ¾ÑĪÐ¾": 2573,
      "aim": 2574,
      "ĠÐ¿ÑĢÐ¾Ð¸Ð·": 2575,
      "ĠÑģÐºÐ°Ð¶": 2576,
      "Ġsimilar": 2577,
      "Ð½Ð¸Ð¹": 2578,
      "ĠÐ³Ð¾Ð»Ð¾Ð²Ñĥ": 2579,
      "ĠÐ¿ÑĢÐ¸ÑĪ": 2580,
      "Ñį": 2581,
      "Ð¸ÐµÐ¼": 2582,
      "ĠAt": 2583,
      "Ġunt": 2584,
      "sy": 2585,
      "Ġtrue": 2586,
      "Ġhealth": 2587,
      "Ġseveral": 2588,
      "ĠÐ·Ð°Ð½": 2589,
      "ĠÐ´Ð¾ÑģÑĤ": 2590,
      "ember": 2591,
      "ĠÑģÑĥÐ´": 2592,
      "Ġtre": 2593,
      "ĠThey": 2594,
      "por": 2595,
      "ĠÐ´ÐµÑĤ": 2596,
      "Ġequ": 2597,
      "Ġiss": 2598,
      "Ð¾Ð·Ñı": 2599,
      "which": 2600,
      "Ġsignificant": 2601,
      "ÑĨÑĭ": 2602,
      "Ġexp": 2603,
      "ÑĢÑı": 2604,
      "ĊĊĊĊĊĊ": 2605,
      "Ð²Ð°ÑĢ": 2606,
      "ĠÐ±ÑĢÐ¾Ñģ": 2607,
      "ĠÐ¾Ð¶": 2608,
      "Ð¶Ðµ": 2609,
      "ĠÑĩÐµÐ»Ð¾Ð²ÐµÐºÐ°": 2610,
      "ĠÐ¼Ð¾Ð³Ñĥ": 2611,
      "Ġimp": 2612,
      "ĠÐ²ÑģÑİ": 2613,
      "atory": 2614,
      "Ġgrow": 2615,
      "Ð°ÑĪÐ°": 2616,
      "Ġair": 2617,
      "Ð°Ð¶ÐµÑĤÑģÑı": 2618,
      "ples": 2619,
      "ĠÐ¶Ð°Ð»": 2620,
      "Ð°Ð´ÑĨ": 2621,
      "Ġsing": 2622,
      "go": 2623,
      "Ġstat": 2624,
      "We": 2625,
      "idd": 2626,
      "aps": 2627,
      "Ġexample": 2628,
      "Ð¸Ð²Ð°Ð»": 2629,
      "ĠÑħÐ¾Ð´": 2630,
      "Wh": 2631,
      "ÐµÐ½Ð¸Ð¹": 2632,
      "12": 2633,
      "ĠÑģÐ»ÐµÐ´": 2634,
      "uck": 2635,
      "ĠÑĤÐ¾ÑĤÑĩÐ°Ñģ": 2636,
      "Ġhour": 2637,
      "Ð·Ñı": 2638,
      "Ġdone": 2639,
      "ele": 2640,
      "ĠÑģÐ²Ð¾Ð¸": 2641,
      "ining": 2642,
      "Ġsix": 2643,
      "Ġopp": 2644,
      "ÑģÑĥÐ´": 2645,
      "ĠÐ¿ÑĢÐ¾Ð³": 2646,
      "ÐºÐ²": 2647,
      "ĠÐ¼Ð½": 2648,
      "Ġtop": 2649,
      "ised": 2650,
      "stit": 2651,
      "ĠÐ´Ð²Ð¾ÑĢ": 2652,
      "side": 2653,
      "Ð½Ð¸Ðµ": 2654,
      "ĠÐ¿ÑĢÐ¸Ñģ": 2655,
      "ards": 2656,
      "It": 2657,
      "ĠÐ»ÐµÐ³": 2658,
      "ĠÐ³Ð¾Ð²Ð¾ÑĢÐ¸ÑĤÑĮ": 2659,
      "ĠÐĿÐ°": 2660,
      "Ġoh": 2661,
      "Ġname": 2662,
      "ĠÑĤÐ¾ÑĩÐ½Ð¾": 2663,
      "Ġdescri": 2664,
      "ĠÑģÐ¿ÑĢÐ¾ÑģÐ¸Ð»": 2665,
      "ÐµÐºÐ¾": 2666,
      "augh": 2667,
      "ividual": 2668,
      "Ġsort": 2669,
      "Ġmeas": 2670,
      "Ġarea": 2671,
      "ĠÑĥÑģÐ¿": 2672,
      "Ġjob": 2673,
      "Ġdrug": 2674,
      "cont": 2675,
      "Ġcommun": 2676,
      "ĠÑĤÐ°ÐºÐ¾Ð¹": 2677,
      "ĠÐ»ÑĥÑĩÑĪÐµ": 2678,
      "Ġdri": 2679,
      "ivers": 2680,
      "Ġview": 2681,
      "Ġcontin": 2682,
      "Ġwomen": 2683,
      "Ġpower": 2684,
      "Ġes": 2685,
      "ĠÑī": 2686,
      "ission": 2687,
      "ield": 2688,
      "Ġprocess": 2689,
      "ead": 2690,
      "ohn": 2691,
      "ories": 2692,
      "from": 2693,
      "Ġwithin": 2694,
      "ention": 2695,
      "Ġnon": 2696,
      "Ġdesign": 2697,
      "Ġresults": 2698,
      "Ġfund": 2699,
      "ĠÐ¿ÑĢÐ¸Ð·": 2700,
      "Ð¼Ð¾Ð¶": 2701,
      "Ġdirect": 2702,
      "oint": 2703,
      "ĠÐ¿Ð¾Ð¹": 2704,
      "ened": 2705,
      "Ġcertain": 2706,
      "Ð¸ÑĩÐ°": 2707,
      "Ġamong": 2708,
      "Ġpresident": 2709,
      "eng": 2710,
      "ĠÐ³Ð¾ÑĢÐ¾Ð´": 2711,
      "!Â»": 2712,
      "Ġwhole": 2713,
      "Ġenough": 2714,
      "ets": 2715,
      "Ġmar": 2716,
      "ĠStates": 2717,
      "Ġtimes": 2718,
      "ĠÑĤÐ¾ÑĢ": 2719,
      "ĠÑģÐµÐ¼": 2720,
      "ĠÑģÐ»ÑĥÑĪ": 2721,
      "ived": 2722,
      "ram": 2723,
      "ĠÐ¾Ð±ÑĢÐ°Ð·": 2724,
      "ĠÑģÐ»ÐµÐ·": 2725,
      "Ġinvol": 2726,
      "Ġmus": 2727,
      "And": 2728,
      "ony": 2729,
      "ĠÐ´Ð¾Ðº": 2730,
      "ider": 2731,
      "ording": 2732,
      "gin": 2733,
      "ĠÐ³ÑĥÐ±": 2734,
      "ĠQ": 2735,
      "olution": 2736,
      "ĠÐ²ÑģÐº": 2737,
      "Ġpass": 2738,
      "Ġask": 2739,
      "Ġeas": 2740,
      "ĠEng": 2741,
      "lf": 2742,
      "ĠHouse": 2743,
      "Ġlow": 2744,
      "ĠÑįÑĤÐ¾Ð¹": 2745,
      "ĠÐ´ÐµÐ¹ÑģÑĤÐ²": 2746,
      "ms": 2747,
      "Ġearly": 2748,
      "comp": 2749,
      "cle": 2750,
      "ÑĢÑĭ": 2751,
      "ÑħÐ¾Ð´Ð¸ÑĤ": 2752,
      "Ġbad": 2753,
      "Ġago": 2754,
      "Ġbit": 2755,
      "Ġorgan": 2756,
      "more": 2757,
      "ĠÐ¿ÑĢÐ¸Ð´": 2758,
      "mb": 2759,
      "ĠÑģÐ¾Ð²ÐµÑĢÑĪÐµÐ½Ð½Ð¾": 2760,
      "ĠÐ½ÐµÐ¼Ñĥ": 2761,
      "ÐµÐ½Ð¸Ñİ": 2762,
      "ĠÑģÑĤÑĢÐ°ÑĪ": 2763,
      "ÑħÐ²Ð°ÑĤ": 2764,
      "Ð»ÐµÐ´": 2765,
      "ĠÐ²Ð¾Ð¿ÑĢÐ¾Ñģ": 2766,
      "Ġnext": 2767,
      "ĠÑħÐ¾ÑĤÑı": 2768,
      "ĠÐ²Ð¾Ð¹": 2769,
      "ĠÐ¾ÑĤÑĩ": 2770,
      "Ġben": 2771,
      "ĠÐ¼Ð¾Ñı": 2772,
      "ĠÐ²Ð¾Ð´": 2773,
      "ĠÐŀÑĤ": 2774,
      "ÐµÐ³Ð¾Ð´": 2775,
      "St": 2776,
      "Ġfront": 2777,
      "Ġknown": 2778,
      "ĠNY": 2779,
      "Ġtown": 2780,
      "ĠÑħÐ¾ÑĤÑĮ": 2781,
      "ĠOn": 2782,
      "ĠÐĲÐ»ÐµÐºÑģ": 2783,
      "over": 2784,
      "Ġ11": 2785,
      "istic": 2786,
      "ĠÐ±Ð¾": 2787,
      "Ġ=": 2788,
      "eak": 2789,
      "Ġmet": 2790,
      "err": 2791,
      "ison": 2792,
      "ively": 2793,
      "let": 2794,
      "Ġoften": 2795,
      "Ġhaving": 2796,
      "ĠÑģÐ²Ð¾Ð¹": 2797,
      "Ġ17": 2798,
      "ĠÐ¼Ð¾ÐµÐ¹": 2799,
      "ÑĭÑĢ": 2800,
      "ĠÑįÑĤÑĥ": 2801,
      "ern": 2802,
      "ÐµÐ½ÐµÑĢ": 2803,
      "ĠBr": 2804,
      "Ġgive": 2805,
      "Ġbre": 2806,
      "ÑĢÐµÐ·": 2807,
      "Ð¸ÐºÐ°": 2808,
      "ÐµÐ½ÑĮÐº": 2809,
      "Ġlim": 2810,
      "sequ": 2811,
      "Ġassoci": 2812,
      "Ġcut": 2813,
      "ĠÑģÐ²Ð¾Ðµ": 2814,
      "Ġaway": 2815,
      "oot": 2816,
      "Ġseen": 2817,
      "ĠÑĥÐ´Ð¸Ð²": 2818,
      "Ġnear": 2819,
      "Ġbuild": 2820,
      "Ġsum": 2821,
      "ential": 2822,
      "ÐµÐ»ÑĮÐ·Ñı": 2823,
      "Ġnews": 2824,
      "Ġuntil": 2825,
      "ĠÐĴÑģÐµ": 2826,
      "ÑĭÐ´": 2827,
      "urther": 2828,
      "Ð°ÐµÑĪÑĮ": 2829,
      "verage": 2830,
      "ĠThese": 2831,
      "Ġparticular": 2832,
      "Cl": 2833,
      "ĠSh": 2834,
      "ĠUS": 2835,
      "ĠÑĨÐµÐ»": 2836,
      "Ġwrit": 2837,
      "ĠÑĤÑıÐ¶": 2838,
      "enn": 2839,
      "ÑıÐ³": 2840,
      "ĠÐ·Ð½Ð°Ð»": 2841,
      "50": 2842,
      "Ð¥": 2843,
      "ĠWashington": 2844,
      "ĠÐ´ÐµÑĢÐµÐ²": 2845,
      "line": 2846,
      "ried": 2847,
      "ÐµÐ½Ð¾": 2848,
      "Ġgetting": 2849,
      "ÐĿÐ°": 2850,
      "ĠÐ°ÑĢ": 2851,
      "Ġpred": 2852,
      "ries": 2853,
      "Ġalong": 2854,
      "ĠÐ¿Ð°ÑĢ": 2855,
      "Ð¾Ð½Ð°": 2856,
      "Ġobserv": 2857,
      "Ġmor": 2858,
      "ĠÐ¾ÑģÑĤÐ°Ð½Ð¾Ð²": 2859,
      "uro": 2860,
      "ĠÐ½ÐµÐ¿ÑĢ": 2861,
      "ule": 2862,
      "ĠÐ¼Ð½Ð¾Ð¹": 2863,
      "each": 2864,
      "ÑĩÐ¸Ð²": 2865,
      "ournal": 2866,
      "my": 2867,
      "ĠÑĤÐµ": 2868,
      "ĠÐ±ÐµÐ»": 2869,
      "Ð¼Ð°Ð½": 2870,
      "Ġalmost": 2871,
      "aid": 2872,
      "oph": 2873,
      "aining": 2874,
      "ĠÐ¸Ð´": 2875,
      "18": 2876,
      "ained": 2877,
      "Ġlist": 2878,
      "Ġ16": 2879,
      "ĠÐºÐ½": 2880,
      "Ð¾ÑĦ": 2881,
      "Ð¢Ñĭ": 2882,
      "ĠÑģÐ¸Ð»ÑĮ": 2883,
      "ÑĢÐ¸Ñĩ": 2884,
      "ÑĥÑīÐµ": 2885,
      "Ġprim": 2886,
      "ological": 2887,
      "ending": 2888,
      "dd": 2889,
      "Ġbusiness": 2890,
      "Ġfriend": 2891,
      "ploy": 2892,
      "Ð»ÐµÑĤ": 2893,
      "ĠÑĤÐ¾Ð¼Ñĥ": 2894,
      "Ð°ÐºÐ¾Ð¼": 2895,
      "ĠÐ½Ð¸ÐºÐ°Ðº": 2896,
      "ibility": 2897,
      "ĠÐ¿Ð¾ÐºÐ°Ð·": 2898,
      "rist": 2899,
      "minist": 2900,
      "ÐµÑĢÐ³": 2901,
      "ĠÐľÐ°ÑĢ": 2902,
      "Ð½ÐµÐ²": 2903,
      "iction": 2904,
      "Ġyoung": 2905,
      "ÐµÑı": 2906,
      "ÑĮÑİ": 2907,
      "osp": 2908,
      "ĠÐ¿Ð¾ÑģÑĤ": 2909,
      "oss": 2910,
      "inter": 2911,
      "ateg": 2912,
      "resp": 2913,
      "Ġsequence": 2914,
      "Ġpress": 2915,
      "ĠÐ¿Ð¸ÑģÑĮ": 2916,
      "Ġcre": 2917,
      "isk": 2918,
      "Ð²Ð°": 2919,
      "Ġelse": 2920,
      "Ġsite": 2921,
      "ÑģÐºÐ¸Ñħ": 2922,
      "ÑģÑĤÐ²Ð¾Ð¼": 2923,
      "Ð½Ð¸ÐºÐ°": 2924,
      "cher": 2925,
      "rap": 2926,
      "Ġchange": 2927,
      "ĠPost": 2928,
      "Ġlocal": 2929,
      "Ġfull": 2930,
      "Ġmakes": 2931,
      "ÑĢÑĥÐ¶": 2932,
      "ĠÑĥÐº": 2933,
      "ĠÑıÐ²": 2934,
      "Ġdeterm": 2935,
      "Ð»Ð°Ð²": 2936,
      "requ": 2937,
      "ĠSp": 2938,
      "Ġproduct": 2939,
      "ances": 2940,
      "ĠÐ´Ð°Ð»": 2941,
      "ÐµÑĩÐ½Ð¾": 2942,
      "ĠÑĢÑĥÑģ": 2943,
      "Ġtechn": 2944,
      "bec": 2945,
      "Ġrese": 2946,
      "ĠÐ¿ÑĢÐµÐ´ÑģÑĤÐ°Ð²": 2947,
      "ĠÐ¿ÑĢÐµÐ¶Ð´Ðµ": 2948,
      "ĠÑĨÐ°ÑĢ": 2949,
      "Ġet": 2950,
      "cul": 2951,
      "ĠÐ·Ð°ÑĤ": 2952,
      "Ġquestion": 2953,
      "ocr": 2954,
      "Ġcame": 2955,
      "Ġbeh": 2956,
      "Ð»ÑİÐ´": 2957,
      "ĠÐ¼Ð¸Ð½ÑĥÑĤÑĥ": 2958,
      "aign": 2959,
      "ĠÑĢÐ°Ð±Ð¾ÑĤ": 2960,
      "enc": 2961,
      "ĠÐ¼Ð¸ÑĢ": 2962,
      "okay": 2963,
      "Ġfunction": 2964,
      "where": 2965,
      "Ġoffic": 2966,
      "Ġsam": 2967,
      "ĠÐºÐ°Ð¶ÐµÑĤÑģÑı": 2968,
      "20": 2969,
      "Ġoper": 2970,
      "Ġfore": 2971,
      "Ġhig": 2972,
      "ederal": 2973,
      "ĠÑģÐ¼ÐµÑĢ": 2974,
      "Ġtot": 2975,
      "ĠÐ¾ÑģÐ¾Ð±ÐµÐ½Ð½Ð¾": 2976,
      "ered": 2977,
      "ĠÑģÐ²Ð¾Ð¸Ñħ": 2978,
      "ĠÐ±Ð»Ð°Ð³": 2979,
      "Ġtoday": 2980,
      "ĠPresident": 2981,
      "Ġwater": 2982,
      "Ð»ÐµÐ½Ð¸Ðµ": 2983,
      "Ġmethod": 2984,
      "Ġpot": 2985,
      "ĠÐ¿Ð¾Ð´ÑĥÐ¼": 2986,
      "Ġorig": 2987,
      "Ġhalf": 2988,
      "ograph": 2989,
      "ÐĶÐ°": 2990,
      "ÑĩÐµ": 2991,
      "Ġnice": 2992,
      "bl": 2993,
      "ĠÐ²ÐµÑĩÐµÑĢ": 2994,
      "ĠRepublic": 2995,
      "Ð¸ÐºÐ¸": 2996,
      "Ġrather": 2997,
      "ĠÑħÐ¾Ð·Ñı": 2998,
      "Ġallow": 2999,
      "ÐµÐ·Ð´": 3000,
      "ĠÐ¼Ð¾Ðµ": 3001,
      "ĠÑĩÐµÑĢÐµÐ·": 3002,
      "Ġtype": 3003,
      "ĠÐ¾Ð´Ð½Ð¾": 3004,
      "ĠÐ¿Ð¾Ñħ": 3005,
      "ĠÑģÐ»ÑĥÐ¶": 3006,
      "ĠÐ¤ÐµÐ´": 3007,
      "Ð½ÐµÐ¼": 3008,
      "Ġdeath": 3009,
      "duced": 3010,
      "ges": 3011,
      "Ġmillion": 3012,
      "Ð³Ð¸": 3013,
      "ounds": 3014,
      "ĠÑģÐ²Ð¾Ð¸Ð¼": 3015,
      "mit": 3016,
      "lished": 3017,
      "artment": 3018,
      "Ð½ÑıÐ»": 3019,
      "ĠÐ±Ð»Ð°Ð³Ð¾": 3020,
      "ended": 3021,
      "Ġshown": 3022,
      "ÑıÑħ": 3023,
      "Ġsk": 3024,
      "trans": 3025,
      "ependent": 3026,
      "mon": 3027,
      "Ġreported": 3028,
      "ored": 3029,
      "angu": 3030,
      "Ġpie": 3031,
      "Ġleft": 3032,
      "Ġincluding": 3033,
      "ĠÑĤÐ°ÐºÐ¾Ðµ": 3034,
      "ocial": 3035,
      "ĠÐ½ÑĥÐ¶Ð½Ð¾": 3036,
      "ĠÐ¿ÑĢÑıÐ¼": 3037,
      "ÑıÐ»ÑģÑı": 3038,
      "ĠÐ²Ð¼ÐµÑģÑĤÐµ": 3039,
      "Ġreason": 3040,
      "fic": 3041,
      "Ð½Ð¸Ñĩ": 3042,
      "Ġstudies": 3043,
      "son": 3044,
      "Ġclear": 3045,
      "ĠÐ´ÑĥÑħ": 3046,
      "ÑĤÐ¾Ñĩ": 3047,
      "Ġmut": 3048,
      "Ð¿Ð¾Ð´": 3049,
      "Ġcompany": 3050,
      "23": 3051,
      "ÐµÐ½Ð½ÑĭÐµ": 3052,
      "ĠÐ½ÐµÐ¾Ð±": 3053,
      "have": 3054,
      "ene": 3055,
      "Ġcou": 3056,
      "ĠÐ½Ð¾ÑĩÑĮ": 3057,
      "apers": 3058,
      "Ð¾ÑĩÐµÐ¼": 3059,
      "Ġeverything": 3060,
      "ĠÐ³ÑĢÐ°ÑĦ": 3061,
      "ores": 3062,
      "Ġyes": 3063,
      "ĠÐ½Ð°ÑĩÐ°Ð»": 3064,
      "ĠÎ¼": 3065,
      "Ð¸ÑĢÐ°": 3066,
      "Ð¾ÑĪÐ°Ð´": 3067,
      "ĠJohn": 3068,
      "Ġpolitical": 3069,
      "ĠÐĸ": 3070,
      "ĠÑģÐ¾Ð³": 3071,
      "ument": 3072,
      "pecially": 3073,
      "ĠÐ¿ÑĢÐ¾Ð²": 3074,
      "Ġmag": 3075,
      "CR": 3076,
      "Ġauth": 3077,
      "Ch": 3078,
      "ĠÐ¼ÐµÑĢ": 3079,
      "ĠÐºÐ¾ÑĤÐ¾ÑĢÐ¾Ð¹": 3080,
      "ĠÐ¼ÑĭÑģÐ»": 3081,
      "ÐµÐ²Ð½Ð°": 3082,
      "ĠÐ±Ð°Ð±": 3083,
      "onse": 3084,
      "ĠÑĢÐ°Ð²": 3085,
      "Ġinteresting": 3086,
      "ops": 3087,
      "ÐµÐ¶Ð´": 3088,
      "ailable": 3089,
      "Ð»ÑİÑĩ": 3090,
      "Ð¾Ð²Ð¾ÑĢÐ¸Ð»": 3091,
      "ÑıÐ»Ð°": 3092,
      "ĠÐ²Ð·Ð´": 3093,
      "Ð½Ð°ÐºÐ¾": 3094,
      "orld": 3095,
      "Ġable": 3096,
      "ĠÑĤÑĢÐ¸": 3097,
      "ĠÐ·Ð½Ð°Ñĩ": 3098,
      "Ġenj": 3099,
      "Ġmarket": 3100,
      "ĠÐ²ÑĭÑĢÐ°Ð¶": 3101,
      "Ġpast": 3102,
      "ĠBrit": 3103,
      "ĠÐĲÑĢ": 3104,
      "Ġwatch": 3105,
      "work": 3106,
      "ÑĤÑĭ": 3107,
      "Ġsuc": 3108,
      "Ġarg": 3109,
      "ators": 3110,
      "ĠÑĩÐ¸ÑĤ": 3111,
      "Ġmaybe": 3112,
      "ormal": 3113,
      "ÑĢÐ°Ð½ÑĨÑĥÐ·": 3114,
      "Ð¸ÐºÐ¾Ð²": 3115,
      "Ġabs": 3116,
      "Ġindividual": 3117,
      "ape": 3118,
      "Ð½Ð¾ÑĪ": 3119,
      "rain": 3120,
      "ĠÑĤÑĢÑĥÐ´": 3121,
      "ÑĨÑĥ": 3122,
      "year": 3123,
      "Ġlab": 3124,
      "Ð¿ÑĢÐ¾ÑĩÐµÐ¼": 3125,
      "ready": 3126,
      "Ġgiven": 3127,
      "ĠÐ½ÐµÐ»ÑĮÐ·Ñı": 3128,
      "ĠÐ¿ÑĢÐµÐº": 3129,
      "ÑģÑıÑĩ": 3130,
      "ĠPro": 3131,
      "iod": 3132,
      "ĠCon": 3133,
      "Ġage": 3134,
      "Ġlegal": 3135,
      "vir": 3136,
      "new": 3137,
      "ĠÑĥÐ»Ð¸": 3138,
      "Ð»ÑıÐ»": 3139,
      "ĠNYT": 3140,
      "Ġpossible": 3141,
      "ott": 3142,
      "acy": 3143,
      "Ġindic": 3144,
      "ope": 3145,
      "Ġspecific": 3146,
      "ÑģÐºÐ¸Ðµ": 3147,
      "ĠÐ²Ð¸Ð´ÐµÐ»": 3148,
      "Ð»Ð¸Ð½": 3149,
      "ney": 3150,
      "ÐµÐ½Ð½Ð¾Ð¹": 3151,
      "ĠÑĢÑĥÐ±": 3152,
      "Ġpain": 3153,
      "Ġ30": 3154,
      "11": 3155,
      "ĠÐ´ÑĥÐ¼Ð°Ð»": 3156,
      "iting": 3157,
      "Ġca": 3158,
      "Ð½Ð¾Ñģ": 3159,
      "Ġbecome": 3160,
      "ĠÐ·Ð´": 3161,
      "ĠÐ²ÐµÐ»Ð¸Ðº": 3162,
      "Ð²Ð¸": 3163,
      "Ġbenef": 3164,
      "ert": 3165,
      "Ġhy": 3166,
      "ĠÐ¾ÑĤÐºÑĢ": 3167,
      "ĠÐ²Ð·Ð³Ð»Ñı": 3168,
      "ÐµÐ½ÑĮÐµ": 3169,
      "ĠÐ´Ð¾Ð¼Ð°": 3170,
      "na": 3171,
      "ches": 3172,
      "ĠÐºÐ°Ð·Ð°Ð»Ð¾ÑģÑĮ": 3173,
      "Figure": 3174,
      "But": 3175,
      "ĠTo": 3176,
      "Ġlevels": 3177,
      "Ð°ÐµÑĤÐµ": 3178,
      "Ġlive": 3179,
      "ials": 3180,
      "itors": 3181,
      "ĠÐ¼Ð¾ÑĢ": 3182,
      "Ġ14": 3183,
      "Ġpriv": 3184,
      "Ġsingle": 3185,
      "see": 3186,
      "part": 3187,
      "Ġwond": 3188,
      "Ð¾ÑĤÐ¾Ð¼": 3189,
      "ĠÑģÐµÐ¹ÑĩÐ°Ñģ": 3190,
      "ĠÐ±Ð¾ÑĢ": 3191,
      "ify": 3192,
      "icy": 3193,
      "Ġcomput": 3194,
      "Ġcal": 3195,
      "ĠÐ³Ð¾Ð´": 3196,
      "ĠÐ¸Ð·Ð²ÐµÑģÑĤ": 3197,
      "ĠÐ´Ð¾Ñģ": 3198,
      "ĠÐ²ÑĭÐ¿": 3199,
      "Ġdoll": 3200,
      "Ġ13": 3201,
      "ĠÐ±ÐµÑĢ": 3202,
      "ĠÑģÑĤÐ°Ð»Ð¾": 3203,
      "Ð¸Ð²Ð°ÑĤÑĮ": 3204,
      "Ð¾Ð²Ð°Ð½": 3205,
      "ĠÑģÑĢÐµÐ´": 3206,
      "add": 3207,
      "ĠÐ´Ð¾Ð»Ð³Ð¾": 3208,
      "Ġreports": 3209,
      "Ð²Ð¾Ð»": 3210,
      "ĠÑĪÐ°Ð³": 3211,
      "Ġhom": 3212,
      "Ġtry": 3213,
      "ĠÑĤÐ¾Ð±": 3214,
      "ĠÑĩÐµÑĤ": 3215,
      "Ġtem": 3216,
      "Ġyet": 3217,
      "ĠÐ»Ð¾ÑĪÐ°Ð´": 3218,
      "Ġorder": 3219,
      "Ð¼Ð¾": 3220,
      "Ġclaim": 3221,
      "ĠÐŁÐµÑĤÑĢÐ¾Ð²": 3222,
      "Ġlater": 3223,
      "Ġcond": 3224,
      "ĠÐ³Ð¾ÑģÑĥÐ´": 3225,
      "Ġmodel": 3226,
      "Ġtrying": 3227,
      "ĠÐ³Ð»Ð°Ð²": 3228,
      "Ġquite": 3229,
      "ÑĢÐ°Ð´": 3230,
      "ino": 3231,
      "Ġve": 3232,
      "ĠÐ»ÐµÐ¶": 3233,
      "ĠHowever": 3234,
      "Ġenjoy": 3235,
      "Ġinfl": 3236,
      "ĠÑįÑĤÐ°": 3237,
      "ĠÐŀÐ´": 3238,
      "utes": 3239,
      "Ġbased": 3240,
      "ilt": 3241,
      "zy": 3242,
      "ĠÑģÐ¾Ð·": 3243,
      "gether": 3244,
      "Ġnight": 3245,
      "ÐµÐ·Ð¶": 3246,
      "ÑĭÐºÐ½Ð¾Ð²": 3247,
      "Ġtreatment": 3248,
      "Ġok": 3249,
      "ĠÐ´Ð¾Ð»Ð¶ÐµÐ½": 3250,
      "ĠÑĤÐ°": 3251,
      "Ġshort": 3252,
      "ucle": 3253,
      "lev": 3254,
      ");": 3255,
      "Ġdeal": 3256,
      "Ġpost": 3257,
      "ots": 3258,
      "ĠÐ³ÐµÐ½ÐµÑĢ": 3259,
      "Ġsex": 3260,
      "aff": 3261,
      "ĠÑĥÑģÐ»": 3262,
      "Ð¾Ð±Ð¾Ð´": 3263,
      "Ð»Ð¸ÑĪ": 3264,
      "rences": 3265,
      "Ġclose": 3266,
      "ÑİÑĪ": 3267,
      "were": 3268,
      "Ġsubject": 3269,
      "ÐµÑĢÐ¿": 3270,
      "ification": 3271,
      "This": 3272,
      "Ġtook": 3273,
      "ÐļÐ¾Ð³Ð´Ð°": 3274,
      "ung": 3275,
      "ext": 3276,
      "dis": 3277,
      "ÐŃ": 3278,
      "ĠÐºÐ¾ÑĤÐ¾ÑĢÐ¾Ð³Ð¾": 3279,
      "urope": 3280,
      "ĠÐ¿ÑĢÐ¸ÑıÑĤ": 3281,
      "Ġside": 3282,
      "ĠÐ¿ÑĢÐ¸Ñħ": 3283,
      "ĠÐ¶Ð¸ÑĤÑĮ": 3284,
      "ĠMc": 3285,
      "Ġokay": 3286,
      "just": 3287,
      "this": 3288,
      "ĠÐ±ÑĥÐ´Ñĥ": 3289,
      "Ġtold": 3290,
      "ÑĤÐ°ÐºÐ¸": 3291,
      "Ð¸ÑĤÑĢ": 3292,
      "avor": 3293,
      "ĠÐ¼Ð°ÑĤÑĮ": 3294,
      "Ġrece": 3295,
      "Ġvol": 3296,
      "Ð¿ÐµÑĢÐµÐ´": 3297,
      "Ġanti": 3298,
      "Ġcurrent": 3299,
      "ĠÐ²ÑĢ": 3300,
      "ÑĭÐ²Ð°Ð»": 3301,
      "ĠÐ´ÑĥÑĢ": 3302,
      "clus": 3303,
      "ÑĪÐ¸ÑģÑĮ": 3304,
      "Ġlikely": 3305,
      "ĠÐ¿ÑĥÑģÑĤ": 3306,
      "ma": 3307,
      "Ġlo": 3308,
      "ane": 3309,
      "Ġfree": 3310,
      "ĠÑģÑĩÐ°ÑģÑĤ": 3311,
      "ĠÑĢÐ°Ð·Ð³Ð¾Ð²Ð¾ÑĢ": 3312,
      "Ð¸Ð¶Ñĥ": 3313,
      "],": 3314,
      "icle": 3315,
      "ĠDe": 3316,
      "ĠÑĤÑĭÑģÑıÑĩ": 3317,
      "ÑĤÑĥ": 3318,
      "Ġmen": 3319,
      "Ġcases": 3320,
      "ĠÐ¼ÐµÐ´": 3321,
      "Ġestim": 3322,
      "Ġtrad": 3323,
      "ĠÐ¼ÐµÑģÑĤ": 3324,
      "Ġexperim": 3325,
      "ĠDNA": 3326,
      "pression": 3327,
      "Ġblack": 3328,
      "ĠÐ¿Ð¾Ð»ÑĥÑĩ": 3329,
      "ÑĩÐ°ÑģÑĤ": 3330,
      "ĠAll": 3331,
      "Ġann": 3332,
      "osph": 3333,
      "ĠÐ¿ÐµÑĩ": 3334,
      "ÑģÑĤÐ²Ðµ": 3335,
      "bor": 3336,
      "Ġlear": 3337,
      "ÐµÐ½Ð½ÑĭÐ¼": 3338,
      "ĠÐ´ÐµÑĢÐ¶": 3339,
      "aut": 3340,
      "Ġunderstand": 3341,
      "ched": 3342,
      "ĠÐ³Ð¾ÑĤÐ¾Ð²": 3343,
      "iter": 3344,
      "Ġproteins": 3345,
      "ister": 3346,
      "aken": 3347,
      "Ð»ÐµÐ½Ð¸Ñı": 3348,
      "undred": 3349,
      "ĠÐºÐ°Ð¼": 3350,
      "ĠPr": 3351,
      "15": 3352,
      "Ð¾Ð²Ð¾Ð»ÑĮÐ½Ð¾": 3353,
      "ĠÑģÐ°Ð´": 3354,
      "gress": 3355,
      "Ð¡ÑĤ": 3356,
      "Ġbro": 3357,
      "off": 3358,
      "ĠÐ¸Ð¼ÐµÐ½Ð½Ð¾": 3359,
      "Ð»Ð¸Ð²Ð¾": 3360,
      "ĠÐ¿ÑĢÐ¾ÑģÑĤÐ¾": 3361,
      "ĠÐ²Ð¾Ð·Ð²": 3362,
      "ÑĪÐµÐ³Ð¾": 3363,
      "ĠÑħÐ»": 3364,
      "Ġprevious": 3365,
      "ÐµÑĤÐ°": 3366,
      "ĠÐĿÐ°ÑĤ": 3367,
      "what": 3368,
      "Ġdete": 3369,
      "itary": 3370,
      "arm": 3371,
      "ĠÑģÐµÑĢ": 3372,
      "ĠÐ¼ÑĥÑĩ": 3373,
      "ÑİÑī": 3374,
      "Ġsaying": 3375,
      "aster": 3376,
      "ĠÐ¾Ð¶Ð¸Ð´": 3377,
      "Ġ*": 3378,
      "ÑģÑĤÐ¸Ð½": 3379,
      "ĠÑĤÐµÑħ": 3380,
      "ĠÐ¾ÑĤÐ¿": 3381,
      "Ġeight": 3382,
      "ÐµÐ½Ð½Ð¾Ðµ": 3383,
      "ĠEnglish": 3384,
      "Ġfail": 3385,
      "cret": 3386,
      "Ġcentury": 3387,
      "ST": 3388,
      "ĠÑĢÐ°Ð·Ð±": 3389,
      "ĠÐºÐ¾ÑĤÐ¾ÑĢÐ°Ñı": 3390,
      "ÑĥÑĢÐ³": 3391,
      "useum": 3392,
      "ference": 3393,
      "Ġusually": 3394,
      "ĠÐ´Ð°Ð²Ð½Ð¾": 3395,
      "ĠÐ½Ð¾Ñģ": 3396,
      "Ġconcer": 3397,
      "RNA": 3398,
      "row": 3399,
      "aring": 3400,
      "ĠÐ¾ÑĤÐ²ÐµÑĩÐ°Ð»": 3401,
      "Ġbelieve": 3402,
      "lo": 3403,
      "ume": 3404,
      "Ġfac": 3405,
      "ĠÐºÑĥÐ´Ð°": 3406,
      "ÑģÑĤÐ°Ð»": 3407,
      "che": 3408,
      "ÐŀÑĤ": 3409,
      "Ġdra": 3410,
      "Ġcampaign": 3411,
      "ĠÐ¿Ð¾ÑĪ": 3412,
      "ĠÐ¼ÐµÑĩ": 3413,
      "Ð»ÑĥÑĪ": 3414,
      "Ġconserv": 3415,
      "ĠÐ¼Ð¾Ð¸": 3416,
      "uation": 3417,
      "Ð²Ð°Ð»": 3418,
      "ÐµÑĢÑĤÐ²": 3419,
      "Ð¸Ð½Ñı": 3420,
      "ĠÑıÑģ": 3421,
      "ĠÐ·Ð½Ð°ÐµÑĤ": 3422,
      "ĠÐºÐ¾Ð½Ñĩ": 3423,
      "Ð½ÐµÑģ": 3424,
      "ĠÐ³Ð»ÑĥÐ¿": 3425,
      "Ġtranscript": 3426,
      "iving": 3427,
      "ĠÐ»ÑİÐ±Ð¾Ð²ÑĮ": 3428,
      "Ġdise": 3429,
      "etic": 3430,
      "pat": 3431,
      "Ð±Ñĭ": 3432,
      "ĠÐľÐ½Ðµ": 3433,
      "Ġline": 3434,
      "ĠÐ½ÐµÑĩ": 3435,
      "ĠÐ¿Ð¾ÑģÐ¼Ð¾ÑĤÑĢ": 3436,
      "Ð°ÑģÑĤÐ¸": 3437,
      "ÐµÐ½Ð½ÑĭÑħ": 3438,
      "Ġ)": 3439,
      "Ð¼Ñĭ": 3440,
      "Ð¢Ð°Ðº": 3441,
      "ĠÐ±ÐµÑģÐ¿": 3442,
      "Ð»Ð¸Ñĩ": 3443,
      "Ġconst": 3444,
      "enty": 3445,
      "aries": 3446,
      "ĠÑģÐ°Ð¼Ð°": 3447,
      "Ġmaking": 3448,
      "Ġhistory": 3449,
      "yn": 3450,
      "ÑĭÐ½": 3451,
      "ĠÑĢÐ°ÑģÑģÐºÐ°Ð·": 3452,
      "Ġalready": 3453,
      "Ġmovie": 3454,
      "Ġtyp": 3455,
      "ĠÐ½Ð°Ð¿ÑĢ": 3456,
      "Ð»Ð¾Ð¶": 3457,
      "Ġ198": 3458,
      "Ġevidence": 3459,
      "ĠÐºÑĢÐ¸Ðº": 3460,
      "ĠÐ¾Ð´Ð½Ð°": 3461,
      "posed": 3462,
      "can": 3463,
      "umn": 3464,
      "ĠÐ¾Ð±ÑĢÐ°ÑĤ": 3465,
      "ĠOne": 3466,
      "Ġhowever": 3467,
      "ĠÐ´Ð²ÐµÑĢÑĮ": 3468,
      "Ġkill": 3469,
      "ĠÑģÐ¼Ðµ": 3470,
      "Ġrespons": 3471,
      "anguage": 3472,
      "As": 3473,
      "spec": 3474,
      "Ġsw": 3475,
      "Ð´Ð°ÑĤ": 3476,
      "ĠÑħÐ¾ÑĩÑĥ": 3477,
      "Ġlove": 3478,
      "ĠII": 3479,
      "Ð¸ÑĨÐ°": 3480,
      "selves": 3481,
      "Ġidea": 3482,
      "ivil": 3483,
      "Ġri": 3484,
      "Ġroom": 3485,
      "ĠÑĥÐ·Ð½": 3486,
      "Ġacross": 3487,
      "tained": 3488,
      "ĠÐ²Ð¿": 3489,
      "ental": 3490,
      "Ð½ÐµÐ³Ð¾": 3491,
      "ĠÐ»Ð¸ÑĪÑĮ": 3492,
      "ĠÐºÑĢÐµÐ¿": 3493,
      "ĠÐ¾Ð´Ð½Ð¾Ð³Ð¾": 3494,
      "Ġrepresent": 3495,
      "Ð°ÑĤÑĢ": 3496,
      "ĠÐ´ÐµÐ»Ð°ÑĤÑĮ": 3497,
      "fact": 3498,
      "ffort": 3499,
      "ÐºÐ¸Ð½": 3500,
      "Ġproblems": 3501,
      "ĠÐ½Ð¾Ñĩ": 3502,
      "ĠÑįÑĤÐ¸Ñħ": 3503,
      "ĠYou": 3504,
      "Ġpract": 3505,
      "ĠÐ¿ÑĢÐ¾Ñĩ": 3506,
      "set": 3507,
      "Ġbuy": 3508,
      "ĠÐ»ÑĮ": 3509,
      "action": 3510,
      "Ġmult": 3511,
      "ĠTex": 3512,
      "ÑĭÐ²Ð°Ñı": 3513,
      "Ġworking": 3514,
      "ĠÑĢÐ°ÑģÐ¿": 3515,
      "Ġtotal": 3516,
      "Ġgeneral": 3517,
      "ÑħÐ¾ÑĤ": 3518,
      "iation": 3519,
      "Ġsal": 3520,
      "Ġnational": 3521,
      "haps": 3522,
      "Ð°Ð½Ð¾": 3523,
      "Ð½Ð¸ÐºÐ¾Ð²": 3524,
      "Ġchanges": 3525,
      "ĠÐ¿ÑĢÑıÐ¼Ð¾": 3526,
      "ently": 3527,
      "emocr": 3528,
      "ĠNo": 3529,
      "Ð¾Ð»Ñĩ": 3530,
      "Ġrecord": 3531,
      "Ġwords": 3532,
      "ĠÐ²Ð·Ð³Ð»ÑıÐ´": 3533,
      "Ġpub": 3534,
      "ĠÐ¸Ð·Ð¼": 3535,
      "ĠÐľÐ¾Ñģ": 3536,
      "ĠÐ³Ð»Ð°Ð·Ð°Ð¼Ð¸": 3537,
      "ĠÐºÐ½Ð¸Ð³": 3538,
      "ery": 3539,
      "ĠÐ´Ð½Ñı": 3540,
      "ĠÐľÑĭ": 3541,
      "Ġscre": 3542,
      "ĠÑĢÐµÑĩ": 3543,
      "Ġmeans": 3544,
      "ĠÐ¾Ð´Ð½Ð¾Ð¹": 3545,
      "ÑĥÑİÑī": 3546,
      "Ġremember": 3547,
      "ĠÐ²Ð¾ÑģÐ¿": 3548,
      "ĠÐ½Ð°ÑħÐ¾Ð´": 3549,
      "iol": 3550,
      "asing": 3551,
      "Ġstruct": 3552,
      "Ġimpro": 3553,
      "ĠÑģÑĩÐ¸ÑĤ": 3554,
      "ĠÐ³ÑĢÐ¾Ð¼": 3555,
      "Ġgroups": 3556,
      "Ð»Ð¸ÑĪÐºÐ¾Ð¼": 3557,
      "ĠBe": 3558,
      "Ġopen": 3559,
      "Ġavailable": 3560,
      "ĠÐ¿ÑĢÐ¸Ð¿": 3561,
      "ĠÑģÐ¿Ð¾ÐºÐ¾Ð¹": 3562,
      "Ġhundred": 3563,
      "empt": 3564,
      "ĠÑĤÐ¾Ð½": 3565,
      "Ġgoes": 3566,
      "ensive": 3567,
      "Ġsuccess": 3568,
      "ĠÑĥÐ²ÐµÑĢ": 3569,
      "ĠÑģÐ¾ÑģÑĤÐ¾": 3570,
      "iet": 3571,
      "Ġwon": 3572,
      "Ð¾Ð¼Ð¸Ð½Ð°": 3573,
      "Ġperiod": 3574,
      "Ð¾Ð±ÑĢÐ°Ð·": 3575,
      "ĠÐ¡ÑĤÐµÐ¿": 3576,
      "Ġactivity": 3577,
      "ĠÐ¿Ð¾Ð¶Ð°Ð»": 3578,
      "ortun": 3579,
      "ĠÐ½Ð°Ð·Ð°Ð´": 3580,
      "rec": 3581,
      "inding": 3582,
      "ĠÐ¼Ð¾Ñİ": 3583,
      "An": 3584,
      "Ġdel": 3585,
      "Ġreview": 3586,
      "Ġinvestig": 3587,
      "AC": 3588,
      "know": 3589,
      "ĠÐºÐ¾ÑĤÐ¾ÑĢÑĭÑħ": 3590,
      "ĠÐ¿ÑĢÐ¾Ð¿": 3591,
      "ĠÐĴÐ°Ñģ": 3592,
      "how": 3593,
      "Ġamount": 3594,
      "ky": 3595,
      "ĠÐ²Ð¿ÐµÑĢÐµÐ´": 3596,
      "ĠÐºÑĥÐ¿": 3597,
      "ĠÐ·Ð°ÑĢ": 3598,
      "Ġenc": 3599,
      "ĠEurope": 3600,
      "arget": 3601,
      "Ġtogether": 3602,
      "ÐµÑĢÐ±": 3603,
      "ĠPl": 3604,
      "Ġcharacter": 3605,
      "ends": 3606,
      "Ġrisk": 3607,
      "ĠCD": 3608,
      "ĠÐ²ÑĭÑĪ": 3609,
      "Ġfamil": 3610,
      "ĠÐ²Ð½Ð¸Ð¼": 3611,
      "Ð°ÑĤÐ¸": 3612,
      "Ġcho": 3613,
      "ĠÑģÑİ": 3614,
      "ĠÐºÑĢÐ¸Ñĩ": 3615,
      "ogen": 3616,
      "urs": 3617,
      "ĠÐºÐ¾ÑĤÐ¾ÑĢÐ¾Ðµ": 3618,
      "ĠÐ¿Ð¸Ñģ": 3619,
      "Ġparent": 3620,
      "hy": 3621,
      "ÐµÐ³Ð¾Ð´Ð½Ñı": 3622,
      "Ð°ÑĪÐµ": 3623,
      "Ġisn": 3624,
      "Ġespecially": 3625,
      "Ð½Ð°ÑĤÑĮ": 3626,
      "ĠÐ´Ð°Ð¼": 3627,
      "Ð¤": 3628,
      "ÑĤÑĢÐ°": 3629,
      "Ġrate": 3630,
      "there": 3631,
      "Ġtalking": 3632,
      "Ġmonths": 3633,
      "ĠBl": 3634,
      "anies": 3635,
      "ĠÐ¸Ð³ÑĢ": 3636,
      "ĠÐ³Ð»ÑĥÐ±": 3637,
      "wo": 3638,
      "Ð½ÐµÑĤ": 3639,
      "Ġhigher": 3640,
      "because": 3641,
      "Ð°Ð·Ð´": 3642,
      "ĠÐŁÐ°Ð²Ð»Ð¾Ð²": 3643,
      "ĠÐŁÑĮ": 3644,
      "ĠÐ·Ð½Ð°ÐºÐ¾Ð¼": 3645,
      "Ġaccount": 3646,
      "Ġmembers": 3647,
      "Ġsense": 3648,
      "Ð¾Ð»Ð¾": 3649,
      "Ġoc": 3650,
      "ĠÐ²ÐµÑģÐµÐ»": 3651,
      "Ð¾Ð½ÑĮ": 3652,
      "hern": 3653,
      "Ġaut": 3654,
      "Ġinit": 3655,
      "ĠÐ¿Ð»ÐµÑĩ": 3656,
      "Ġprovide": 3657,
      "ĠÐ¶Ð´": 3658,
      "Ġcommon": 3659,
      "Ġrole": 3660,
      "30": 3661,
      "ĠÑģÐ»Ð¸ÑĪÐºÐ¾Ð¼": 3662,
      "?..": 3663,
      "ĠMon": 3664,
      "ĠÑģÐ»Ð°Ð²": 3665,
      "Ð½Ð¸ÐºÐ¸": 3666,
      "ĠÐ²Ð¾ÑĢÐ¾ÑĤ": 3667,
      "Ð°ÑİÑĤÑģÑı": 3668,
      "sub": 3669,
      "ĠÐ¼Ð½Ð¾Ñİ": 3670,
      "ĠÐľÐ¾ÑģÐºÐ²": 3671,
      "Ð½Ð¸Ñħ": 3672,
      "Ġhaven": 3673,
      "sw": 3674,
      "ogn": 3675,
      "ÑĦÐ¸ÑĨ": 3676,
      "eor": 3677,
      "ĠCal": 3678,
      "atever": 3679,
      "Ġcontribut": 3680,
      "17": 3681,
      "andid": 3682,
      "ĠÐĳÐ¾Ð³": 3683,
      "pected": 3684,
      "\".": 3685,
      "time": 3686,
      "Ġleg": 3687,
      "ĠWP": 3688,
      "ĠCar": 3689,
      "60": 3690,
      "Ð¾Ð´ÑĥÑĪ": 3691,
      "Ġvir": 3692,
      "Ġincrease": 3693,
      "Ð¸ÑģÐº": 3694,
      "ĠÐ·Ð°Ð»": 3695,
      "Ð¸Ð²ÑĪÐ¸ÑģÑĮ": 3696,
      "iversity": 3697,
      "Ġmother": 3698,
      "opp": 3699,
      "Ġcouple": 3700,
      "Fig": 3701,
      "ĠÐ²ÑģÑıÐº": 3702,
      "Ġeduc": 3703,
      "Ġhours": 3704,
      "bs": 3705,
      "ev": 3706,
      "Ð¾Ð½Ñĩ": 3707,
      "iple": 3708,
      "ÑģÑĤÐ²Ñĥ": 3709,
      "ÐµÐ²Ð°": 3710,
      "Ġoccur": 3711,
      "oday": 3712,
      "ĠShe": 3713,
      "Ġindust": 3714,
      "ai": 3715,
      "Ġcomplete": 3716,
      "ÐµÐºÐ¾ÑĤÐ¾ÑĢ": 3717,
      "ÑĥÑģÑĤÑĮ": 3718,
      "Ġstrong": 3719,
      "alls": 3720,
      "Ð°Ð´ÑĨÐ°ÑĤÑĮ": 3721,
      "Ð¾Ð±Ð½Ð¾": 3722,
      "ĠÐ¾Ð±ÐµÐ´": 3723,
      "ongress": 3724,
      "ĠÐ¸Ð·Ð±": 3725,
      "ler": 3726,
      "Ġfavor": 3727,
      "ĠMar": 3728,
      "ĠÐ»ÑİÐ±Ð²Ð¸": 3729,
      "cular": 3730,
      "ĠEx": 3731,
      "ĠWhen": 3732,
      "ober": 3733,
      "ĠÐĵÑĢ": 3734,
      "Ġcat": 3735,
      "ĠÐ¤Ð¾Ð¼": 3736,
      "ÑıÐ¼Ð¸": 3737,
      "udget": 3738,
      "ĠÐ¾Ð½Ð¾": 3739,
      "ĠBush": 3740,
      "urch": 3741,
      "ĠÐ¿ÑĢÐ¸Ñĩ": 3742,
      "ÐŀÐ½Ð°": 3743,
      "ĠChrist": 3744,
      "He": 3745,
      "ĠÐ¿ÑĢÐµÐºÑĢÐ°Ñģ": 3746,
      "Ð»Ð¸Ðº": 3747,
      "ĠÐ¸ÑģÑĤÐ¾ÑĢ": 3748,
      "ware": 3749,
      "ÑıÐ»Ð¸": 3750,
      "ĠÐ¿ÑĢÐ¸ÑħÐ¾Ð´": 3751,
      "ĠÐ¿ÑıÑĤ": 3752,
      "ÐµÐ½Ð½Ð¾Ð³Ð¾": 3753,
      "ĠTr": 3754,
      "Ð¾Ð±ÑĢÐ°Ð¶": 3755,
      "Ġresponse": 3756,
      "curity": 3757,
      "Ġspecial": 3758,
      "?\"": 3759,
      "ĠZ": 3760,
      "onstr": 3761,
      "ump": 3762,
      "ĠÑģÑĤÐ°Ð½": 3763,
      "ĠÐ¿ÑĢÐ¸Ð¼": 3764,
      "ĠÐ¾ÑĤÐµÑĨ": 3765,
      "ĠÑĢÐ°Ð·Ð´": 3766,
      "icted": 3767,
      "ĠÑĦÑĢÐ°Ð½ÑĨÑĥÐ·": 3768,
      "band": 3769,
      "ĠÐ´ÐµÑģÑı": 3770,
      "Ġhot": 3771,
      "Ġmeet": 3772,
      "ption": 3773,
      "late": 3774,
      "oid": 3775,
      "Ġstay": 3776,
      "ÑĢÐ°Ñĩ": 3777,
      "ĠCent": 3778,
      "Ð¾ÐºÐ°": 3779,
      "ĠÐ¾Ð±ÑīÐµ": 3780,
      "ĠÑĩÑĢÐµÐ·": 3781,
      "ĠStreet": 3782,
      "ĠWar": 3783,
      "ĠÐļÐ¾Ð³Ð´Ð°": 3784,
      "ctor": 3785,
      "des": 3786,
      "Ġpiece": 3787,
      "ĠX": 3788,
      "ĠÐ¿ÑĢÐ¾Ðº": 3789,
      "ĠÐķÑģÐ»Ð¸": 3790,
      "Ġspe": 3791,
      "medi": 3792,
      "Ġdevelopment": 3793,
      "ĠAmerica": 3794,
      "mission": 3795,
      "Ð»ÐµÐº": 3796,
      "atives": 3797,
      "Ġmiss": 3798,
      "dif": 3799,
      "ficult": 3800,
      "ray": 3801,
      "Ð»ÐµÐ¹": 3802,
      "ĠÐ½ÑĢÐ°Ð²": 3803,
      "ully": 3804,
      "Ġprograms": 3805,
      "ÑĪÐµÐ¹": 3806,
      "Ġsometimes": 3807,
      "Ð»ÐµÐ½Ð½Ð¾": 3808,
      "Ġport": 3809,
      "ĠÐ½Ð¸Ð¼Ð¸": 3810,
      "Ġcred": 3811,
      "ĠÐ·Ð°Ñĩ": 3812,
      "ĠÐĲÑħ": 3813,
      "hold": 3814,
      "ret": 3815,
      "14": 3816,
      "Al": 3817,
      "ĠÐºÑĢÑĥÐ³": 3818,
      "ivity": 3819,
      "ĠÐ¾Ð±ÑĬÑıÑģ": 3820,
      "Ġdescribed": 3821,
      "Ġsent": 3822,
      "Ġ25": 3823,
      "ĠÐ½Ð°ÑĢ": 3824,
      "Ġmat": 3825,
      "uture": 3826,
      "ĠÑħÐ¾Ð»Ð¾Ð´": 3827,
      "ĠÐłÐ°Ð·": 3828,
      "Ġeffort": 3829,
      "Ġabove": 3830,
      "itted": 3831,
      "Ġemb": 3832,
      "Ġauthor": 3833,
      "DNA": 3834,
      "ĠÑįÑĤÐ¸Ð¼": 3835,
      "erg": 3836,
      "ĠRuss": 3837,
      "Ġemploy": 3838,
      "Ġaf": 3839,
      "Ð±Ð°": 3840,
      "Ġissue": 3841,
      "roll": 3842,
      "ĠThat": 3843,
      "ĠÐ´ÐµÐ½ÑĮÐ³Ð¸": 3844,
      "Ġten": 3845,
      "Ġcomplex": 3846,
      "&#": 3847,
      "Ġla": 3848,
      "ĠÐ³Ð¾Ð²Ð¾ÑĢÑİ": 3849,
      "ĠTexas": 3850,
      "ĠÑģÐ¾Ð±Ð¾Ð¹": 3851,
      "Ð²Ð°Ð½": 3852,
      "ĠÑģÐ¿ÑĢÐ°ÑĪ": 3853,
      "ÑĪÐ¸Ðµ": 3854,
      "Ġregion": 3855,
      "ĠÐĺÐ²Ð°Ð½Ð¾Ð²Ð¸Ñĩ": 3856,
      "Ð¾Ð²Ð¸Ñĩ": 3857,
      "ÑĨÐ¸": 3858,
      "aces": 3859,
      "Â°": 3860,
      "error": 3861,
      "Ġ50": 3862,
      "ĠSen": 3863,
      "ults": 3864,
      "Ġinterview": 3865,
      "Ġvalue": 3866,
      "New": 3867,
      "ÑĢÐ¾Ð½": 3868,
      "Ġmot": 3869,
      "ulated": 3870,
      "Ġcover": 3871,
      "Ð·Ð°": 3872,
      "irl": 3873,
      "gest": 3874,
      "Ġcomes": 3875,
      "ĠÑģÑĤÐ°ÑĢÐ¸Ðº": 3876,
      "Ġpage": 3877,
      "uses": 3878,
      "Ġsuper": 3879,
      "ĠÐ½Ñĥ": 3880,
      "ĠÐ½ÐµÐ·": 3881,
      "Ġothers": 3882,
      "ÑĪÐ¸Ñħ": 3883,
      "ĠÑģÐ¾Ð»Ð´Ð°ÑĤ": 3884,
      "Ġrat": 3885,
      "viron": 3886,
      "Ð¸ÐµÑħ": 3887,
      "ĠÐ¿Ð¾Ð²ÑĤÐ¾ÑĢ": 3888,
      "head": 3889,
      "ÑĥÐ³Ð¾": 3890,
      "Ġaud": 3891,
      "ÑģÑĤÐ²Ð¸Ðµ": 3892,
      "Ġitself": 3893,
      "ĠSc": 3894,
      "Ġ24": 3895,
      "Ġself": 3896,
      "ief": 3897,
      "ĠÐ¿ÑĢÐ¾Ð±": 3898,
      "pped": 3899,
      "13": 3900,
      "ike": 3901,
      "ream": 3902,
      "Ġheard": 3903,
      "Ġmove": 3904,
      "ĠÐºÐ°Ð¿": 3905,
      "ĠÑĥÑĤÑĢ": 3906,
      "Ġdev": 3907,
      "Ġwonder": 3908,
      "ĠGen": 3909,
      "brid": 3910,
      "ball": 3911,
      "ĠÐ¿Ð¾ÑĪÐµÐ»": 3912,
      "ĠÐĺÐ·": 3913,
      "izing": 3914,
      "ĠÐĽÐµÐ²": 3915,
      "eks": 3916,
      "ÐµÐ¼ÐµÐ½": 3917,
      "ĠÐ¾ÑĤÑĤ": 3918,
      "Ġpick": 3919,
      "Ð¾Ð»Ðµ": 3920,
      "ĠRNA": 3921,
      "Ð½ÑıÐ·": 3922,
      "ĠÐ½ÐµÑģÑĩÐ°ÑģÑĤ": 3923,
      "ĠÑĢÐµÐ±": 3924,
      "Ġcomb": 3925,
      "ÑıÑĩ": 3926,
      "iddle": 3927,
      "Ġwalk": 3928,
      "Ġstarted": 3929,
      "ĠÐŁÐ¾": 3930,
      "Ġwasn": 3931,
      "ĠÐ¾Ð±ÑĢÐ°Ñī": 3932,
      "oub": 3933,
      "Ð¸Ð³Ð¾": 3934,
      "16": 3935,
      "Ġsour": 3936,
      "apan": 3937,
      "Ġphys": 3938,
      "Ġdiscuss": 3939,
      "ĠÑĤÑĥ": 3940,
      "Ġconsider": 3941,
      "ĠÑģÐ°Ð¼Ð¾Ð¼": 3942,
      "Ġgrand": 3943,
      "bo": 3944,
      "Ð¾Ð»Ð½": 3945,
      "Ð¾ÑĢÐ°": 3946,
      "imin": 3947,
      "Ġconcent": 3948,
      "Ġpath": 3949,
      "put": 3950,
      "Ġtour": 3951,
      "ĠÐ²Ð°Ð¼Ð¸": 3952,
      "actly": 3953,
      "For": 3954,
      "Ġdeb": 3955,
      "ĠÐ´Ð¾Ð»Ð¶Ð½Ð¾": 3956,
      "Ġrad": 3957,
      "Ġhold": 3958,
      "ÑĭÐ¿": 3959,
      "ĠÐ²Ñĩ": 3960,
      "Ġfra": 3961,
      "verse": 3962,
      "ÐºÐ°Ñı": 3963,
      "Ġmatter": 3964,
      "ĠÐºÐ¾Ð³Ð¾": 3965,
      "Ġsomeone": 3966,
      "Ġsequences": 3967,
      "ĠÐ¿ÑĢÐ¸Ð±Ð°Ð²": 3968,
      "ĠÐ½ÐµÐºÐ¾ÑĤÐ¾ÑĢ": 3969,
      "ĠÐ¾ÑĦÐ¸ÑĨ": 3970,
      "ĠÐ¸ÑģÐ¿ÑĥÐ³": 3971,
      "imal": 3972,
      "ĠÐºÐ¾ÑĤÐ¾ÑĢÑĥÑİ": 3973,
      "Ġrequire": 3974,
      "rew": 3975,
      "ĠÑģÐ»Ð¾Ð²Ð¾": 3976,
      "Ġtoward": 3977,
      "ĠÐ³Ð¾Ð²Ð¾ÑĢÐ¸Ð»Ð°": 3978,
      "ĠÑģÐºÐ¾ÑĢÐ¾": 3979,
      "ival": 3980,
      "ĠAd": 3981,
      "Ġrelative": 3982,
      "ĠÐ²ÑĭÑħÐ¾Ð´": 3983,
      "Ð¼Ð¾ÑĤÑĢÑı": 3984,
      "ÐµÐ½ÑĮÐºÐ°": 3985,
      "prote": 3986,
      "Ġbar": 3987,
      "Ġresearch": 3988,
      "pri": 3989,
      "Ġep": 3990,
      "Ġnormal": 3991,
      "Ġnothing": 3992,
      "ĠÐĽÐ¸Ð·": 3993,
      "ĠÐ¼ÑĭÑģÐ»Ð¸": 3994,
      "ĠOr": 3995,
      "Ġeditor": 3996,
      "ĠÑĢÐ°Ð·ÑĥÐ¼": 3997,
      "Ġhus": 3998,
      "ÑĨÐµÐ²": 3999,
      "irm": 4000,
      "ĠÐ¼Ð°Ð»ÑĮ": 4001,
      "amm": 4002,
      "Ð°ÑĤÐµÐ»ÑĮÐ½Ð¾": 4003,
      "ministration": 4004,
      "Ð²Ð¾Ð·": 4005,
      "ills": 4006,
      "ĠÐ¸Ð½Ð¾Ð³Ð´Ð°": 4007,
      "Ġcapital": 4008,
      "Ð¾Ð´Ð°ÑĢ": 4009,
      "osis": 4010,
      "ĠÐ¿ÑĢÐ¸ÐºÐ°Ð·": 4011,
      "ĠÐ±ÑĭÑģÑĤÑĢÐ¾": 4012,
      "Ġmilitary": 4013,
      "25": 4014,
      "ĠÐ²ÑĭÑĪÐµÐ»": 4015,
      "ĠÑĤÐ¾Ð»Ð¿": 4016,
      "!\"": 4017,
      "ĠÐ°Ð½": 4018,
      "ĠÐ»Ð¸ÑĨÐ°": 4019,
      "ÑĢÑĥ": 4020,
      "comm": 4021,
      "ĠCol": 4022,
      "about": 4023,
      "Ġcompared": 4024,
      "Ġinclude": 4025,
      "ĠÐ²ÑģÑĤÑĢÐµÑĩ": 4026,
      "Ġeffects": 4027,
      "Ġassociated": 4028,
      "ik": 4029,
      "ÑĮÐµ": 4030,
      "ĠÐ¿Ð°Ð»ÑĮ": 4031,
      "cons": 4032,
      "ĠÐ²Ð°Ð¶": 4033,
      "Ð¸ÑĨÑĭ": 4034,
      "Ġrecently": 4035,
      "ĠÐ¼ÑĭÑģÐ»ÑĮ": 4036,
      "To": 4037,
      "Ġintern": 4038,
      "ĠÑģÐ¾Ð³Ð»Ð°Ñģ": 4039,
      "has": 4040,
      "Ġfood": 4041,
      "Ġinvolved": 4042,
      "ĠÐ¾ÑĢ": 4043,
      "arious": 4044,
      "ster": 4045,
      "Ð¸Ð´Ð½Ð¾": 4046,
      "vironment": 4047,
      "ĠÐ²Ð»Ð°": 4048,
      "ought": 4049,
      "ĠÐ¿Ð¾ÑĩÐµÐ¼Ñĥ": 4050,
      "ĠÑģÐ±": 4051,
      "Ġsocial": 4052,
      "ĠÐĴÐµÐ´ÑĮ": 4053,
      "box": 4054,
      "ÑĭÑĩÐ°Ð¹": 4055,
      "ĠÐ´Ð²Ð¸Ð¶": 4056,
      "Ġ;": 4057,
      "ĠIntern": 4058,
      "24": 4059,
      "rid": 4060,
      "ĠÐ»ÐµÑģ": 4061,
      "Ġwhatever": 4062,
      "ĠÐ¸Ð·Ð´": 4063,
      "ĠÑģÐ½Ð¾Ð²Ð°": 4064,
      "ĠÑĤÐ¸ÑħÐ¾": 4065,
      "Ġobserved": 4066,
      "ĠÑİ": 4067,
      "Ġfurther": 4068,
      "ĠÑģÐ²Ð¾ÐµÐ¼": 4069,
      "Ġwhose": 4070,
      "Ġblood": 4071,
      "ze": 4072,
      "ĠDemocr": 4073,
      "ĠÐ¿Ð¾Ð²ÐµÑĢ": 4074,
      "ĠBritish": 4075,
      "reed": 4076,
      "Ġelect": 4077,
      "Ġtiss": 4078,
      "ÐµÐ¶Ð°Ð»": 4079,
      "ĠWhite": 4080,
      "ĠÐ³Ð¾Ð»Ð¾ÑģÐ¾Ð¼": 4081,
      "ÑĢÐ¸ÑĩÐ°Ð»": 4082,
      "ouble": 4083,
      "ĠÑģÐ²Ð¾Ð±Ð¾Ð´": 4084,
      "Ġalthough": 4085,
      "Ġformer": 4086,
      "ĠÑĤÐ¾Ð±Ð¾Ð¹": 4087,
      "Ð»Ð°Ð³": 4088,
      "Ð°Ð½Ñĭ": 4089,
      "Ġrule": 4090,
      "Ġeng": 4091,
      "ÑĥÑĪÐºÐ¸": 4092,
      "ĠÐ¼Ð¾Ð³Ð»Ð°": 4093,
      "ĠÐ¡Ðº": 4094,
      "Ġrecept": 4095,
      "Ġrespect": 4096,
      "ĠÐ¼Ð¾ÐµÐ³Ð¾": 4097,
      "ude": 4098,
      "amed": 4099,
      "ĠÐľÐ¸Ñħ": 4100,
      "lin": 4101,
      "Ð¾ÑģÑģ": 4102,
      "Ð½ÑıÐ·ÑĮ": 4103,
      "ĠÑģÑĥÐ¼": 4104,
      "ĠÐ²Ð¾Ð²": 4105,
      "ĠÐ½Ð°Ð±": 4106,
      "Ġvot": 4107,
      "Ġaccess": 4108,
      "Ġincreased": 4109,
      "ĠBar": 4110,
      "Ġdifference": 4111,
      "ĠÑģÑĤÐ¾ÑıÐ»": 4112,
      "Ġmusic": 4113,
      "Ġisland": 4114,
      "Ġjud": 4115,
      "Ġdisease": 4116,
      "Ġbuilt": 4117,
      "than": 4118,
      "ÐµÐ²Ð¸Ñĩ": 4119,
      "Ð¾Ð»ÑĮÐ·": 4120,
      "Ġnecess": 4121,
      "Ð²Ð¾": 4122,
      "yle": 4123,
      "Ð²Ñĭ": 4124,
      "Ð½ÑĥÑĤ": 4125,
      "ĠÑĥÐ´Ð°ÑĢ": 4126,
      "Ġvers": 4127,
      "ĠÐ½ÐµÐ½": 4128,
      "ÑĪÐ¸": 4129,
      "There": 4130,
      "ÐºÐ°Ð´": 4131,
      "Ġcompanies": 4132,
      "rench": 4133,
      "ÐµÑħÐ»ÑİÐ´": 4134,
      "ĠÑĤÐ¾Ð²Ð°ÑĢ": 4135,
      "ĠÐ·Ð½Ð°ÑĤÑĮ": 4136,
      "ĠÐ²Ð¾Ð·Ð´": 4137,
      "ĠÐ¿ÐµÑĢÐ²ÑĭÐ¹": 4138,
      "ĠÐ»Ð°Ñģ": 4139,
      "ĠÐŁÐ¾Ñģ": 4140,
      "ĠÐ½ÐµÐ¶": 4141,
      "Ġredu": 4142,
      "Ġneg": 4143,
      "ĠWorld": 4144,
      "ĠÐºÑĢÐ°Ð¹": 4145,
      "Ð»ÑİÐ±": 4146,
      "Ġcod": 4147,
      "Ġattack": 4148,
      "Ġlanguage": 4149,
      "Ð¾Ð²Ð¾Ð¹": 4150,
      "ĠÐ¿ÑĢÐ¾Ð´Ð¾Ð»Ð¶Ð°Ð»": 4151,
      "hem": 4152,
      "arily": 4153,
      "Ġaddition": 4154,
      "tes": 4155,
      "ĠÑĩÑĥÑĤÑĮ": 4156,
      "Ġlate": 4157,
      "Ġdollars": 4158,
      "Ġwhite": 4159,
      "Ġclin": 4160,
      "ÐµÐ½Ð½Ð°Ñı": 4161,
      "ĠÐ´Ð¾Ð²Ð¾Ð»ÑĮÐ½Ð¾": 4162,
      "ĠÑģÐ»Ð°Ð±": 4163,
      "AP": 4164,
      "ĠÐºÐ°ÐºÐ¸Ðµ": 4165,
      "ĠÐĴÐ°ÑĢ": 4166,
      "unch": 4167,
      "Ġwanted": 4168,
      "?Â»": 4169,
      "ĠTV": 4170,
      "ÑģÐºÐ¾ÑĢ": 4171,
      "Americ": 4172,
      "hood": 4173,
      "istance": 4174,
      "Ġcommunity": 4175,
      "ĠÐ¿ÑĢÐ¸ÐµÑħ": 4176,
      "ĠÐ²ÑĭÐ´": 4177,
      "Ġgets": 4178,
      "Ð¾Ð¼Ðµ": 4179,
      "Ġones": 4180,
      "ĠÐŀÐ½Ð¸": 4181,
      "ĠÑģÑĤÐ¾ÑĢÐ¾Ð½Ñĭ": 4182,
      "Ġservices": 4183,
      "Ġtarget": 4184,
      "ĠÑģÑĥÑīÐµ": 4185,
      "ÐºÐ¸Ð¼": 4186,
      "Ð¸Ð½Ð¾Ð¹": 4187,
      "ĠÐ²Ð¸Ð´ÐµÑĤÑĮ": 4188,
      "Se": 4189,
      "ued": 4190,
      "Ð¸ÑĤÐµÐ»": 4191,
      "ĠÑĢÑĥÐºÐ°Ð¼Ð¸": 4192,
      "Ġoffice": 4193,
      "Ġdifficult": 4194,
      "Ġpolicy": 4195,
      "Ġfilm": 4196,
      "ength": 4197,
      "ĠÐ²ÑĭÐ±": 4198,
      "ights": 4199,
      "IV": 4200,
      "Ġstreet": 4201,
      "ĠAm": 4202,
      "ÑĢÐ°Ð¼": 4203,
      "Ġclust": 4204,
      "ĠÑģÐµÐ³Ð¾Ð´Ð½Ñı": 4205,
      "fected": 4206,
      "Ġcompet": 4207,
      "ĠÐ²ÑĭÑģÐ¾Ðº": 4208,
      "ĠÑģÐ°Ð¼Ð¸": 4209,
      "Ġthous": 4210,
      "Ġstep": 4211,
      "rem": 4212,
      "ÐºÐ¾Ðµ": 4213,
      "Ġreturn": 4214,
      "ĠÐ²ÑģÑĤÑĢÐµÑĤ": 4215,
      "olic": 4216,
      "ĠÐ²ÑĢÐµÐ¼ÐµÐ½Ð¸": 4217,
      "ĠÑĢÐ°ÑģÑģÐºÐ°Ð·ÑĭÐ²": 4218,
      "ĠÐ·Ð°ÑĩÐµÐ¼": 4219,
      "Ġhimself": 4220,
      "ĠÐ¿ÑıÑĤÑĮ": 4221,
      "ÐŁÐ¾Ð´": 4222,
      "SC": 4223,
      "Ġtaken": 4224,
      "Ð¾Ð¹Ð´": 4225,
      "ĠÑģÐ°Ð¼Ð¾Ð³Ð¾": 4226,
      "ÐµÑĢÐ±ÑĥÑĢÐ³": 4227,
      "Ġhusband": 4228,
      "ÑģÐºÐ°Ñı": 4229,
      "Ġdecl": 4230,
      "Ð»Ð°Ñĩ": 4231,
      "ground": 4232,
      "\",": 4233,
      "ĠÐ²Ð·ÑıÐ»": 4234,
      "ÑĢÐµÐ¼ÐµÐ½Ð½Ð¾": 4235,
      "ĠÐºÐ»": 4236,
      "Ġteam": 4237,
      "ÑģÑĤÐ°": 4238,
      "imately": 4239,
      "Ġ+": 4240,
      "ĠÐ½Ð°Ð·ÑĭÐ²": 4241,
      "Ġwife": 4242,
      "ĠÐ¼ÐµÑģÑĤÐ¾": 4243,
      "ĠÐ¼Ð°Ð»Ð¾": 4244,
      "ĠÐ¾Ð´Ð½Ð°ÐºÐ¾": 4245,
      "ĠÐĲÐ»ÐµÑĪ": 4246,
      "ÐºÐ¸Ðµ": 4247,
      "ĠÐºÐ¾Ð½ÐµÑĩÐ½Ð¾": 4248,
      "Ð½ÑĥÐ»Ð°ÑģÑĮ": 4249,
      "ĠÐ½Ð¸ÐºÑĤÐ¾": 4250,
      "Ġple": 4251,
      "ique": 4252,
      "Ġfederal": 4253,
      "ĠÐ»ÑİÐ±Ð»Ñİ": 4254,
      "Ġfollowing": 4255,
      "eed": 4256,
      "ĠÑĩÐµÐ»Ð¾Ð²ÐµÑĩ": 4257,
      "post": 4258,
      "term": 4259,
      "Ġsele": 4260,
      "ĠÐ´ÐµÐ»Ðµ": 4261,
      "Ġrelations": 4262,
      "bing": 4263,
      "Ġweeks": 4264,
      "ĠGore": 4265,
      "ĠÐ¼Ð°ÑĤÐµÑĢÐ¸": 4266,
      ".).": 4267,
      "Ġhear": 4268,
      "ÑıÑĤÐµÐ»ÑĮ": 4269,
      "Ġfish": 4270,
      "ocy": 4271,
      "Ġdetail": 4272,
      "ĠÐ²ÐµÑĤ": 4273,
      "tic": 4274,
      "Ġlower": 4275,
      "chan": 4276,
      "ĠÐļÐ°ÑĤ": 4277,
      "iles": 4278,
      "Ð½Ð¾ÑģÑĤÑĮÑİ": 4279,
      "ĠÐ²Ð¾Ð»Ð¾Ñģ": 4280,
      "Ġestab": 4281,
      "ÑĥÐºÐ¸": 4282,
      "Ġrul": 4283,
      "rab": 4284,
      "using": 4285,
      "ĠÑĩÐ°ÑģÑĤÐ¾": 4286,
      "aling": 4287,
      "ÑģÐºÐ¸": 4288,
      "Ġcompar": 4289,
      "ĠÐĲÐ»ÐµÐºÑģÐ°Ð½Ð´": 4290,
      "ĠÐ¼ÐµÑģÑı": 4291,
      "Ġwouldn": 4292,
      "ĠÐ¾Ð·": 4293,
      "ĠGeor": 4294,
      "ĠÐŁÐµÑĤÑĢ": 4295,
      "Ġdistribut": 4296,
      "aur": 4297,
      "ĠSte": 4298,
      "ĠÐ¾ÑĤÑĨÐ°": 4299,
      "ĠÐ·Ð°Ð¼ÐµÑĩ": 4300,
      "aged": 4301,
      "ĠÐ¢ÑĢ": 4302,
      "Ġpattern": 4303,
      "ĠÐ³ÐµÐ½ÐµÑĢÐ°Ð»": 4304,
      "ĠÐ½ÐµÑİ": 4305,
      "Ð°Ð²ÑĪÐ¸Ð¹": 4306,
      "Ġwa": 4307,
      "ĠÐ½Ð°Ð³": 4308,
      "Ġstandard": 4309,
      "Ġcandid": 4310,
      "ĠÐ·Ð½Ð°ÐµÑĤÐµ": 4311,
      "ny": 4312,
      "Ġgrowth": 4313,
      "ĠÑĢÑĭ": 4314,
      "ÑģÐºÐ¸Ð¼": 4315,
      "Ġcontr": 4316,
      "ĠÐ³Ð¾ÑĢÐ´": 4317,
      "ÑĥÑģÑĮ": 4318,
      "ĠÐ´Ð»Ð¸Ð½": 4319,
      "ĠÐºÐ¾ÑĤÐ¾ÑĢÐ¾Ð¼": 4320,
      "play": 4321,
      "ĠÐ´ÐµÐ»Ð°": 4322,
      "ift": 4323,
      "Ġmom": 4324,
      "ĠAf": 4325,
      "ĠÐ²ÑĭÐ³": 4326,
      "âĢľ": 4327,
      "ĠÑĨÐµÑĢ": 4328,
      "Ġentire": 4329,
      "ĠÐ³Ð»ÑıÐ´Ñı": 4330,
      "ply": 4331,
      "ĠBill": 4332,
      "Ð³Ð¾ÑĢ": 4333,
      "ÐºÐ¾Ñİ": 4334,
      "Ġthemselves": 4335,
      "ĠÐ´ÑĢÐ¾Ð¶": 4336,
      "Ġpopular": 4337,
      "ging": 4338,
      "ĠÐ¿ÐµÑģ": 4339,
      "ilities": 4340,
      "ĠÐ¿Ð¾ÑģÑĤÑĥÐ¿": 4341,
      "Ġess": 4342,
      "era": 4343,
      "ises": 4344,
      "omes": 4345,
      "ĠÑĩÑĥÐ´": 4346,
      "Ġlack": 4347,
      "Ġmiles": 4348,
      "oly": 4349,
      "Ġtum": 4350,
      "Ġshows": 4351,
      "ĠMay": 4352,
      "Ġextra": 4353,
      "ÑĭÐ²Ð°ÑĤÑĮ": 4354,
      "Ġparents": 4355,
      "Ð»ÑıÑĤÑĮ": 4356,
      "airs": 4357,
      "Ġminutes": 4358,
      "Ġaff": 4359,
      "Ð°Ð½Ð½Ð¾": 4360,
      "ÑĤÐ¾ÑĢÐ°": 4361,
      "ĠÑģÑĤÑĢÐ°Ð´": 4362,
      "Ġcle": 4363,
      "ĠCongress": 4364,
      "ĠNational": 4365,
      "ĠNews": 4366,
      "ĠÑģÑĩÐ°ÑģÑĤÐ»Ð¸Ð²": 4367,
      "Ð°Ð²ÑĢ": 4368,
      "iforn": 4369,
      "ĠÐ½Ð¾Ð³Ð¸": 4370,
      "Ġterms": 4371,
      "iam": 4372,
      "sign": 4373,
      "ese": 4374,
      "century": 4375,
      "ĠÐ´ÑĢÑĥÐ³Ð¸Ñħ": 4376,
      "Ġlooking": 4377,
      "ĠÑģÐ´ÐµÐ»Ð°ÑĤÑĮ": 4378,
      "ĠÑģÑĤÑĢÐ°Ñħ": 4379,
      "Ġsize": 4380,
      "ĠÐºÐ°ÐºÐ°Ñı": 4381,
      "Ġexcept": 4382,
      "ĠWill": 4383,
      "Ġcolumn": 4384,
      "Ġide": 4385,
      "back": 4386,
      "reme": 4387,
      "Ġfall": 4388,
      "Ð²Ðµ": 4389,
      "ĠÑĤÐ¾Ð¹": 4390,
      "ÐµÐ½ÑĮÑı": 4391,
      "bet": 4392,
      "ĠJapan": 4393,
      "Ġworth": 4394,
      "Ġill": 4395,
      "acc": 4396,
      "ement": 4397,
      "Ġsyn": 4398,
      "ring": 4399,
      "ÐµÐµÑĤ": 4400,
      "ĠÐ²Ð¸Ð½Ð¾Ð²": 4401,
      "ĠÑģÐºÐ¾Ð»ÑĮÐºÐ¾": 4402,
      "Ð¾ÑĩÐ½Ð¾": 4403,
      "itting": 4404,
      "ÑıÑĤÑĮÑģÑı": 4405,
      "Ġocc": 4406,
      "ÑĤÐµÑĢÐµÑģ": 4407,
      "Ġprivate": 4408,
      "fam": 4409,
      "Ġbudget": 4410,
      "Ð¾ÑģÑĤÐ°Ð²": 4411,
      "Ġrequired": 4412,
      "af": 4413,
      "ica": 4414,
      "Ġrepe": 4415,
      "Ġ100": 4416,
      "Ġcra": 4417,
      "ĠÐŁÐ¾Ð»": 4418,
      "Ġmind": 4419,
      "Ð°ÑĤÑĮÑı": 4420,
      "Ġsell": 4421,
      "inese": 4422,
      "Ġcenter": 4423,
      "ĠÐ±ÑĥÐ¼": 4424,
      "ospital": 4425,
      "Ġsens": 4426,
      "ĠWhat": 4427,
      "AR": 4428,
      "ports": 4429,
      "Ġsepar": 4430,
      "ĠÐĹÐ°": 4431,
      "ancial": 4432,
      "Ġcir": 4433,
      "Ġcollege": 4434,
      "Ġdefin": 4435,
      "Ġculture": 4436,
      "Ġfuture": 4437,
      "dom": 4438,
      "Ġsoci": 4439,
      "who": 4440,
      "ĠÐ·Ð°Ð¼ÐµÑĤÐ¸Ð»": 4441,
      "Ġcomputer": 4442,
      "Ð±Ñĥ": 4443,
      "Ġgun": 4444,
      "duct": 4445,
      "vention": 4446,
      "uge": 4447,
      "ĠÐ´Ð°Ð»ÑĮ": 4448,
      "ĠÐ¿ÑĢÐ¸Ð³": 4449,
      "ĠLos": 4450,
      "ÑıÑĤÑģÑı": 4451,
      "ĠLAT": 4452,
      "ĠÑĨÐ²ÐµÑĤ": 4453,
      "Ġbegin": 4454,
      "ĠÐ²Ð¸Ð¶Ñĥ": 4455,
      "Ġanaly": 4456,
      "Ġpopulation": 4457,
      "rael": 4458,
      "ĠHis": 4459,
      "elt": 4460,
      "ĠÑģÐ²ÐµÑĤÐµ": 4461,
      "Ġ).": 4462,
      "asm": 4463,
      "une": 4464,
      "Ð½Ð¸Ð¸": 4465,
      "ĠÐ´ÑĢÑĥÐ³Ð°": 4466,
      "Ġstri": 4467,
      "ĠAfter": 4468,
      "ĠÐ´Ð¾Ð²": 4469,
      "Ð¸Ð²Ð°ÐµÑĤ": 4470,
      "ĠÐĿÐ°Ð¿": 4471,
      "Ġagree": 4472,
      "geles": 4473,
      "ĠÐ±Ð»Ð¸Ð·": 4474,
      "Ġposition": 4475,
      "ĠÑģÑĥÐ´ÑĮ": 4476,
      "ĠÐµÑħ": 4477,
      "Ġwrong": 4478,
      "Ġtaking": 4479,
      "ĠÑĢÑıÐ´": 4480,
      "ÑģÐºÐ¾Ð¼": 4481,
      "oes": 4482,
      "Ġhyp": 4483,
      "ste": 4484,
      "ĠÑĤÐ°ÐºÐ¸Ð¼": 4485,
      "ferent": 4486,
      "Ġroad": 4487,
      "ites": 4488,
      "vert": 4489,
      "ĠFl": 4490,
      "ĠÂ": 4491,
      "ÑĭÐ»ÑĮ": 4492,
      "aving": 4493,
      "70": 4494,
      "Ġfrequ": 4495,
      "ĠÐ¿ÑĢÐ¾ÑĤ": 4496,
      "Ġvalues": 4497,
      "respond": 4498,
      "ĠÐºÐ°ÐºÐ¾Ðµ": 4499,
      "ĠÐĴÑģ": 4500,
      "oe": 4501,
      "Ð³Ð°": 4502,
      "Ġsaw": 4503,
      "Ġasked": 4504,
      "Ġsus": 4505,
      "ĠÑĪÐ¸ÑĢ": 4506,
      "Ġimag": 4507,
      "ĠÐ¿ÑĢÐ¾Ñī": 4508,
      "ĠChina": 4509,
      "Ġidentified": 4510,
      "ĠÐ¿ÑĮÑı": 4511,
      "Ġfoc": 4512,
      "hel": 4513,
      "ĠÐ½ÐµÑĢ": 4514,
      "ĠÐ¿ÑĢÐµÐ·": 4515,
      "ps": 4516,
      "aly": 4517,
      "ĠÐ´Ð²ÑĥÑħ": 4518,
      "If": 4519,
      "Ġdemonstr": 4520,
      "ÑĤÐ¸ÑĢ": 4521,
      "Ġter": 4522,
      "Ġheart": 4523,
      "ÑĪÐ°Ñı": 4524,
      "ĠÐĵÐ¾Ð»": 4525,
      "ĠÐ¾ÐºÐ¾Ð»Ð¾": 4526,
      "Ġmeasure": 4527,
      "Ð½Ð°ÑĤÐµ": 4528,
      "ously": 4529,
      "Ġconsist": 4530,
      "ĠÐ´ÑıÐ´": 4531,
      "Ġevent": 4532,
      "Ġsummer": 4533,
      "estern": 4534,
      "ĠÐ´ÐµÐ½": 4535,
      "Ġoutside": 4536,
      "DS": 4537,
      "Ġmicro": 4538,
      "ĠÐ¤ÐµÐ´Ð¾ÑĢÐ¾Ð²": 4539,
      "ĠPh": 4540,
      "ifornia": 4541,
      "AG": 4542,
      "ns": 4543,
      "Ð²Ð¾Ð´": 4544,
      "Ġhous": 4545,
      "ĠÑģÑĤÐ°Ð½Ð¾Ð²": 4546,
      "ĠÐĿÐµÑħÐ»ÑİÐ´": 4547,
      "ford": 4548,
      "ĠÐ´Ð²Ðµ": 4549,
      "ĠÑģÐ¾Ð±Ð¾Ñİ": 4550,
      "lation": 4551,
      "Ðĸ": 4552,
      "Ð¸ÑĤÐµÑģÑĮ": 4553,
      "ĠÑĥÐ¶Ð°ÑģÐ½Ð¾": 4554,
      "ĠÐľÐ°ÑĢÑĮÑı": 4555,
      "Ð¼ÐµÑĤ": 4556,
      "Ġstories": 4557,
      "Ð²ÐµÐ´": 4558,
      "Ð°ÐºÐ¾Ð²": 4559,
      "ĠÑĤÐ°ÐºÐ¸Ðµ": 4560,
      "ĠÐ¼Ð¾Ð¸Ñħ": 4561,
      "Ġz": 4562,
      "ĠÐ²Ð½Ñĥ": 4563,
      "ĠÑıÑĢ": 4564,
      "ĠÐºÑĢÐ¾Ð¼Ðµ": 4565,
      "Ġbecame": 4566,
      "ĠÑģÐµÐ»": 4567,
      "Ð°Ð½Ðµ": 4568,
      "Ð¾ÑĩÐºÐ°": 4569,
      "Ġarticle": 4570,
      "Ġland": 4571,
      "char": 4572,
      "ĠÑģÐ²Ð¸Ð´": 4573,
      "ĠÑĢÑĥÐº": 4574,
      "Ġquality": 4575,
      "Ġmedia": 4576,
      "ires": 4577,
      "iding": 4578,
      "otic": 4579,
      "edic": 4580,
      "eration": 4581,
      "Ġproper": 4582,
      "Ġcivil": 4583,
      "Ġdr": 4584,
      "ĠGerm": 4585,
      "ĠÐ±ÐµÑģÑģ": 4586,
      "Ġinflu": 4587,
      "ĠÐŁÑĮÐµÑĢ": 4588,
      "Ġfem": 4589,
      "Ġlight": 4590,
      "Ġadditional": 4591,
      "Ġexpressed": 4592,
      "ÐĹÐ°": 4593,
      "Ġapproach": 4594,
      "Ġtakes": 4595,
      "Ġfinal": 4596,
      "inv": 4597,
      "ĠÑĤÐ°Ð¹": 4598,
      "ĠÐ±Ð»ÐµÐ´": 4599,
      "ĠÐ¶ÐµÑģÑĤ": 4600,
      "onal": 4601,
      "ĠÐ»Ð¸ÑĪ": 4602,
      "ĠÐŁÐ¾Ð´": 4603,
      "ÐµÑĩÐ°ÑĤ": 4604,
      "ÑĮÐ¼Ð¸": 4605,
      "ĠÐ¿ÑĥÑĤ": 4606,
      "Ð²Ð¾Ð»ÑĮ": 4607,
      "Ġbooks": 4608,
      "ĠÑĢÐµÐ²": 4609,
      "ĠÐºÐ¾Ð¼Ð½Ð°ÑĤÐµ": 4610,
      "ĠÐ¿Ð¸ÑģÑĮÐ¼Ð¾": 4611,
      "uly": 4612,
      "Ð½Ð¸Ñı": 4613,
      "ĠSo": 4614,
      "ĠÑģÐµÑģÑĤ": 4615,
      "ĠÐ´Ð¸Ð²": 4616,
      "ĠÑģÐ¼ÐµÑĪ": 4617,
      "oke": 4618,
      "rill": 4619,
      "ÑĨÐµÐ¼": 4620,
      "Ġsites": 4621,
      "Ð¾Ð¿ÑĭÑĤ": 4622,
      "ÑĥÐ²ÑģÑĤÐ²Ð¾": 4623,
      "ĠÐ·Ð°Ð²ÑĤÑĢÐ°": 4624,
      "Ġservice": 4625,
      "Ġansw": 4626,
      "Ġdog": 4627,
      "place": 4628,
      "Ġappear": 4629,
      "gment": 4630,
      "Ġcancer": 4631,
      "unt": 4632,
      "wise": 4633,
      "ĠÐ²Ð¿ÑĢÐ¾ÑĩÐµÐ¼": 4634,
      "ĠÐ²Ð°ÑĪÐµ": 4635,
      "soft": 4636,
      "ming": 4637,
      "ĠÑģÑĤÑĭÐ´": 4638,
      "ĠÐºÐ°ÐºÐ¸Ð¼": 4639,
      "ÐĴÑĭ": 4640,
      "Ġstates": 4641,
      "Ġpoly": 4642,
      "Ġregul": 4643,
      "ĠÑģÑİÐ´Ð°": 4644,
      "ĠWith": 4645,
      "ĠÑģÐ¿Ð°Ñģ": 4646,
      "uclear": 4647,
      "Ð°Ñī": 4648,
      "Ġsol": 4649,
      "Ġcoun": 4650,
      "ĠÑģÐ¸Ð´ÐµÐ»": 4651,
      "inally": 4652,
      "ĠÐ¼Ð³": 4653,
      "ĠÐ³Ð¾Ð²Ð¾ÑĢÐ¸Ð»Ð¸": 4654,
      "Ġeconomic": 4655,
      "ĠÐ²Ð½": 4656,
      "their": 4657,
      "ÑĪÐµÐµ": 4658,
      "ĠÐ³Ð¾Ð»Ð¾Ð²Ð¾Ð¹": 4659,
      "Ġprofess": 4660,
      "Ġaverage": 4661,
      "Ġpotential": 4662,
      "ĠÐ¼ÐµÑĪ": 4663,
      "ĠÐ¿Ð¾Ð´ÑĥÐ¼Ð°Ð»": 4664,
      "Ð²ÑĭÑĩÐ°Ð¹": 4665,
      "ĠÐºÐ¾Ð¼Ð½Ð°ÑĤÑĥ": 4666,
      "ĠÑĪÐµÐ»": 4667,
      "ĠÐĲÑĢÐºÐ°Ð´": 4668,
      "ĠÐºÑĢÐ¾Ð²": 4669,
      "reen": 4670,
      "Ġtwenty": 4671,
      "Ġareas": 4672,
      "ĊĊĊ": 4673,
      "Ġexist": 4674,
      "ĠFran": 4675,
      "range": 4676,
      "chers": 4677,
      "bes": 4678,
      "ÑĥÐ»ÑĮ": 4679,
      "ĠÐ¿ÑĢÐ°Ð²Ð´Ð°": 4680,
      "Ġden": 4681,
      "Ġlink": 4682,
      "ĠServ": 4683,
      "Ġviol": 4684,
      "Ġlawy": 4685,
      "Ð¾Ð»Ñı": 4686,
      "ĠÐĶÐ¼": 4687,
      "Ġneigh": 4688,
      "Ġpoor": 4689,
      "ĠÑĤÐ²ÐµÑĢÐ´": 4690,
      "ĠÐ´Ð¾Ð¼Ðµ": 4691,
      "will": 4692,
      "Ġsomebody": 4693,
      "fficient": 4694,
      "Ġpapers": 4695,
      "Ġfif": 4696,
      "Ġprot": 4697,
      "his": 4698,
      "pite": 4699,
      "Ġaction": 4700,
      "ÐĴÐ¾ÑĤ": 4701,
      "avid": 4702,
      "ĠÑĤÐ¾Ð²Ð°ÑĢÐ¸Ñī": 4703,
      "ÑĭÑģÐ»": 4704,
      "lier": 4705,
      "col": 4706,
      "cise": 4707,
      "gn": 4708,
      "ĠÐºÑĥÑĢ": 4709,
      "ĠÐ²ÑģÐµÐ¹": 4710,
      "Ġmodern": 4711,
      "ĠÐ²Ð¾Ð²ÑģÐµ": 4712,
      "ĠÑĤÑĢÐµÐ±": 4713,
      "ĠÑģÐ¾Ð»Ð½": 4714,
      "eace": 4715,
      "ĠÑħÑĥÐ´": 4716,
      "Ġinhib": 4717,
      "ĠÑģÐ¼Ð¾ÑĤÑĢÐµÐ»": 4718,
      "Ġmass": 4719,
      "Ġnewsp": 4720,
      "Ġ40": 4721,
      "ĠÑĥÐ¼ÐµÑĢ": 4722,
      "Ð»Ñĥ": 4723,
      "Ġlost": 4724,
      "ĠÐ³Ð¾Ð´Ð°": 4725,
      "ĠFrench": 4726,
      "ĠÐ´Ð¾Ð¼Ð¾Ð¹": 4727,
      "ĠÐºÐ½ÑıÐ·Ñı": 4728,
      "Ġleads": 4729,
      "ĠÑģÑĭÐ½": 4730,
      "Ġcop": 4731,
      "ÑĤÐ¾ÑĢÐ¾Ð¶": 4732,
      "ĠÐ¾ÑĤÐ½Ð¾ÑĪ": 4733,
      "aced": 4734,
      "Ġalle": 4735,
      "lying": 4736,
      "Ġassess": 4737,
      "ĠSouth": 4738,
      "Ġimmun": 4739,
      "Ð¾ÑģÑĤÑĮÑİ": 4740,
      "ĠÐ¼Ð°Ð»ÐµÐ½ÑĮÐº": 4741,
      "isms": 4742,
      "ĠÐ²ÑģÐ¿Ð¾Ð¼Ð½": 4743,
      "ĠÐ²ÐµÑī": 4744,
      "ĠÐ½Ð°ÑģÑĤÐ¾": 4745,
      "ĠÐ¼Ð½Ð¾Ð³": 4746,
      "pol": 4747,
      "Ġwind": 4748,
      "ĠmM": 4749,
      "ĠÐ´ÑĥÑĪÐ¸": 4750,
      "othes": 4751,
      "ĠÐŀÐ±": 4752,
      "Ġthird": 4753,
      "ĠLew": 4754,
      "agn": 4755,
      "specific": 4756,
      "oor": 4757,
      "Ġsupposed": 4758,
      "ĠÐ·Ð°Ð´ÑĥÐ¼": 4759,
      "ĠÐ±Ð°ÑĤ": 4760,
      "Ġbeaut": 4761,
      "aches": 4762,
      "ĠÑĩÐ¸Ñģ": 4763,
      "umb": 4764,
      "Ġvarious": 4765,
      "ĠÐ³Ð¾Ð²Ð¾ÑĢÑıÑĤ": 4766,
      "Ġworks": 4767,
      "idered": 4768,
      "Ð°Ð»ÑĮÐ½Ð¾": 4769,
      "ĠÐºÐ°Ð¶Ð´ÑĭÐ¹": 4770,
      "aily": 4771,
      "Ġnorth": 4772,
      "Ġarch": 4773,
      "oman": 4774,
      "ÐµÐºÐ¸": 4775,
      "ĠÐ´ÑĥÐ¼Ð°Ñİ": 4776,
      "Ġserious": 4777,
      "sure": 4778,
      "vis": 4779,
      "Ð°ÐºÐ°": 4780,
      "Ġwoman": 4781,
      "ĠÑģÐ°Ð¼Ð¾Ðµ": 4782,
      "ĠÐ½ÐµÐ¿ÑĢÐ¸ÑıÑĤ": 4783,
      "cut": 4784,
      "Ġsom": 4785,
      "amb": 4786,
      "ĠÐ¢Ð¾Ð»ÑĮÐºÐ¾": 4787,
      "ÐŁÐ¾": 4788,
      "ĠÐ²Ð¾Ð·Ð¼Ð¾Ð¶": 4789,
      "Ġinstead": 4790,
      "Ġaccept": 4791,
      "under": 4792,
      "You": 4793,
      "Ð²Ð¸Ð´": 4794,
      "Ġbring": 4795,
      "cor": 4796,
      "ĠÐ½Ð°Ð¹": 4797,
      "ĠÑĩÑĥÐ²ÑģÑĤÐ²Ð¾Ð²Ð°Ð»": 4798,
      "atur": 4799,
      "ĠÐ±ÐµÐ³": 4800,
      "Ġpatient": 4801,
      "Ġrecogn": 4802,
      "On": 4803,
      "ĠÑĪÑĥÐ¼": 4804,
      "based": 4805,
      "ÐĴÑģÐµ": 4806,
      "ĠÐ´Ð²ÐµÑĢÐ¸": 4807,
      "Ġdomain": 4808,
      "ĠÐ¾ÑĦÐ¸ÑĨÐµÑĢ": 4809,
      "Com": 4810,
      "ask": 4811,
      "ĠÐ¿ÑĢÐ¸ÑĤ": 4812,
      "Ġspend": 4813,
      "det": 4814,
      "ĠÑģÐ´": 4815,
      "ĠÐ½ÐµÑģÐ¼Ð¾ÑĤÑĢÑı": 4816,
      "40": 4817,
      "exic": 4818,
      "ĠÐ´ÑĢÑĥÐ¶": 4819,
      "ym": 4820,
      "ĠÑĩÑĥÐ²ÑģÑĤÐ²Ð¾": 4821,
      "Ġnet": 4822,
      "Ġcoming": 4823,
      "ÐµÑĢÑĮÐµÐ·": 4824,
      "Ġlonger": 4825,
      "ĠÑıÐ·": 4826,
      "ĠÐĲÐ½Ð´ÑĢÐµÐ¹": 4827,
      "ĠÑģÐ¼ÐµÑĢÑĤÐ¸": 4828,
      "ĠÐ·Ð½Ð°ÐµÑĪÑĮ": 4829,
      "Ġpoll": 4830,
      "Ġbreak": 4831,
      "Ġson": 4832,
      "ĠÑĩÑĢÐµÐ·Ð²ÑĭÑĩÐ°Ð¹": 4833,
      "Ġmice": 4834,
      "Ð¾Ð´Ñĥ": 4835,
      "ĠÐŁÐµÑĤÑĢÐ¾Ð²Ð¸Ñĩ": 4836,
      "Ġrelated": 4837,
      "would": 4838,
      "ÑİÑģÑĮ": 4839,
      "What": 4840,
      "Ġbuilding": 4841,
      "Ġrange": 4842,
      "Ġnovel": 4843,
      "ĠAct": 4844,
      "Ð¾Ð¶Ð¸Ð´": 4845,
      "ecut": 4846,
      "ĠÐ¿ÑĢÐ¾Ð³Ð¾Ð²Ð¾ÑĢÐ¸Ð»": 4847,
      "gl": 4848,
      "Ġ23": 4849,
      "Ġeducation": 4850,
      "Ġfair": 4851,
      "Ġdue": 4852,
      "ĠÐ´ÐµÐ´": 4853,
      "ban": 4854,
      "ĠÐ¿ÑĢÐµÐ²": 4855,
      "agement": 4856,
      "Ð½Ð¸ÑĨÐ°": 4857,
      "Ġperformed": 4858,
      "ĠÐ¿ÑĢÐµÑģÑĤ": 4859,
      "Ð°ÑĤÐ°": 4860,
      "Ġcouldn": 4861,
      "Ġmagaz": 4862,
      "cal": 4863,
      "uced": 4864,
      "Ð°Ð½Ð¸Ð¸": 4865,
      "tee": 4866,
      "itten": 4867,
      "ĠÐ³Ð¾ÑģÑĥÐ´Ð°ÑĢ": 4868,
      "ĠÐ¾Ð´Ð½Ñĥ": 4869,
      "Ġeasy": 4870,
      "ĠÑģÑĤÐ°Ð»Ð¸": 4871,
      "ĠNorth": 4872,
      "................": 4873,
      "ÑģÐºÑĥÑİ": 4874,
      "ĠÑĤÐµÐ»": 4875,
      "ĠÐ»Ð¾Ð¶": 4876,
      "ĠÐ¾Ð±Ð»": 4877,
      "ĠÐ·Ð´Ð¾ÑĢÐ¾Ð²": 4878,
      "Ð¾Ð²Ð°Ð»Ð°": 4879,
      "Ġ21": 4880,
      "Ġpersonal": 4881,
      "mod": 4882,
      "Ð¼ÐµÑĪ": 4883,
      "Ġreve": 4884,
      "ĠMan": 4885,
      "Ġdat": 4886,
      "ĠÐ¿ÐµÑĢÐµÑģÑĤ": 4887,
      "Ġindependent": 4888,
      "Ġpict": 4889,
      "cin": 4890,
      "some": 4891,
      "onna": 4892,
      "Ġemer": 4893,
      "ĠCity": 4894,
      "ĠDep": 4895,
      "Re": 4896,
      "Ġrates": 4897,
      "ĠÐºÑĢÐ¾Ð²ÑĮ": 4898,
      "ÐµÑħÐ°Ð»": 4899,
      "ÑİÑĤÑģÑı": 4900,
      "ÑģÐºÐ¾Ðµ": 4901,
      "rought": 4902,
      "ĠÐ¿Ð¾Ð¶Ð°Ð»ÑĥÐ¹": 4903,
      "fully": 4904,
      "ĠÐ´Ð¾Ð³": 4905,
      "ĠSan": 4906,
      "Ð¾Ð·Ð¼Ð¾Ð¶": 4907,
      "ĠÐ²Ð¾ÑģÐº": 4908,
      "andom": 4909,
      "ĠÑģÐºÑĢ": 4910,
      "ÐĺÐ·": 4911,
      "Ġeverybody": 4912,
      "Ġparticip": 4913,
      "Ġindustry": 4914,
      "ĠÑĢÐµÐ±ÐµÐ½": 4915,
      "ĠÑģÐ´ÐµÐ»Ð°Ð»": 4916,
      "when": 4917,
      "Ð¨": 4918,
      "Ġinf": 4919,
      "Ð°Ð½Ð½ÑĭÐ¹": 4920,
      "mark": 4921,
      "ĠÐ¸Ð´ÐµÑĤ": 4922,
      "chie": 4923,
      "ÑıÑĤÐ½Ð¾": 4924,
      "ĠChinese": 4925,
      "ĠÑģÑĩÐ°ÑģÑĤÑĮ": 4926,
      "Ġcheck": 4927,
      "ĠÐ´ÐµÐ¹ÑģÑĤÐ²Ð¸ÑĤÐµÐ»ÑĮÐ½Ð¾": 4928,
      "ĠÐ¿ÑĢÐ¾Ð¼": 4929,
      "Ġguy": 4930,
      "ÑĭÑĤÑĮ": 4931,
      "ÑĪÐ¸Ð¼": 4932,
      "Ġ22": 4933,
      "ĠÐ½ÐµÐ¼Ð½Ð¾Ð³Ð¾": 4934,
      "Ġsett": 4935,
      "ĠÐ¼Ð¾Ð»ÑĩÐ°": 4936,
      "ĠÐĿÐ¸ÐºÐ¾Ð»Ð°Ð¹": 4937,
      "ij": 4938,
      "ÑģÑĤÐ¾": 4939,
      "ÐŀÐ´": 4940,
      "ĠÑĤÐµÑĢ": 4941,
      "ĠÐ·Ð¾Ð»": 4942,
      "ĠÐ¾Ð±ÑĭÐºÐ½Ð¾Ð²": 4943,
      "Ġtravel": 4944,
      "come": 4945,
      "ĠÑĪÑĥÑĤ": 4946,
      "Ġconsidered": 4947,
      "includ": 4948,
      "Ġspeak": 4949,
      "ĠÐ¾Ð±ÑĬÑıÑģÐ½": 4950,
      "sur": 4951,
      "ÑĢÐµÑĤ": 4952,
      "Ġfather": 4953,
      "ĠÑĥÑģÑĤ": 4954,
      "imate": 4955,
      "Ġmater": 4956,
      "Ġcosts": 4957,
      "erve": 4958,
      "ales": 4959,
      "Ġste": 4960,
      "Ð°Ð½ÑĮÐµ": 4961,
      "Ġissues": 4962,
      "ÑĨÐ¸Ð¸": 4963,
      "Ġaccording": 4964,
      "Ġbenefits": 4965,
      "asts": 4966,
      "ĠGr": 4967,
      "ĠJournal": 4968,
      "insky": 4969,
      "ye": 4970,
      "ÑĥÑı": 4971,
      "ÐµÐ´Ð¸Ð½": 4972,
      "ĠÐ¢ÐµÐ¿ÐµÑĢÑĮ": 4973,
      "aul": 4974,
      "Ġfine": 4975,
      "ĠÐĵÐ¾Ñģ": 4976,
      "Ġsurpr": 4977,
      "ÑĥÐºÐ°": 4978,
      "ÑĨÐ¾Ð²": 4979,
      "ĠÑħÐ¾ÑĩÐµÑĤ": 4980,
      "Ġforeign": 4981,
      "Ġban": 4982,
      "ÑģÑĤÐµÐ¹": 4983,
      "ĠÐ»Ð¸ÑĨÐµ": 4984,
      "Ġinside": 4985,
      "cr": 4986,
      "ÐºÐ¾Ð½": 4987,
      "point": 4988,
      "ÑīÐµÐµ": 4989,
      "ĠÐ²Ð¸Ð´Ð½Ð¾": 4990,
      "Ġpoints": 4991,
      "So": 4992,
      "Ġcannot": 4993,
      "Ġshowed": 4994,
      "ĠÑĩÐµÑģÑĤ": 4995,
      "Ġliving": 4996,
      "ĠÐ¼Ð°Ð»ÑĮÑĩÐ¸Ðº": 4997,
      "ÐµÐµÑĤÑģÑı": 4998,
      "Ġbur": 4999,
      "Ð°ÑİÑģÑĮ": 5000,
      "Ġdifferences": 5001,
      "ĠÐĲÐ½Ð½Ð°": 5002,
      "ĠÑģÑĤÐ¾ÑĢÐ¾Ð½Ñĥ": 5003,
      "ĠBy": 5004,
      "ĠÐŁÐµÑĤÐµÑĢÐ±ÑĥÑĢÐ³": 5005,
      "ĠÐ¿ÑĢÐ¸Ð»": 5006,
      "rane": 5007,
      "Ð¾ÑĤÐ°": 5008,
      "ovie": 5009,
      "ĠÐ¿ÑĢÐ¸Ð½Ð¸Ð¼": 5010,
      "Con": 5011,
      "rief": 5012,
      "Ð¾ÑĪÐ»Ð°": 5013,
      "ĠÑĤÐ²Ð¾Ð¹": 5014,
      "ĠÑģÑĤÐ¾Ð¸ÑĤ": 5015,
      "ĠÑĢÐ°Ð·Ð²Ðµ": 5016,
      "oms": 5017,
      "ĠÐĴÐµÑĢ": 5018,
      "ĠCalifornia": 5019,
      "ĠÐ´ÑĢÑĥÐ³Ð¸Ðµ": 5020,
      "ĠÐºÐ½ÑıÐ¶": 5021,
      "Ġfa": 5022,
      "ĠÐ¼Ð¾Ð½": 5023,
      "Ġgone": 5024,
      "roph": 5025,
      "Ġgave": 5026,
      "Ð°ÑĩÐµÐ¼": 5027,
      "Ġstrateg": 5028,
      "ĠFigure": 5029,
      "Ġmechan": 5030,
      "CT": 5031,
      "Ġur": 5032,
      "Ġseven": 5033,
      "Ġlines": 5034,
      "eter": 5035,
      "ĠÐ³ÐµÑĢ": 5036,
      "ĠÑģÐ²ÐµÑĢ": 5037,
      "ĠÐ¿Ð»Ð°ÑĤ": 5038,
      "poss": 5039,
      "Ġdecision": 5040,
      "bi": 5041,
      "Ġtea": 5042,
      "atural": 5043,
      ".âĢĿ": 5044,
      "ÐµÐ»ÐµÐ½": 5045,
      "oted": 5046,
      "ades": 5047,
      "ĠÐ²ÑĭÐ·": 5048,
      "ÑİÑĪÐºÐ°": 5049,
      "GF": 5050,
      "cial": 5051,
      "Ġmur": 5052,
      "ĠRes": 5053,
      "ĠÐ´ÑĥÑĪÐµ": 5054,
      "ĠÐ¶ÐµÐ½ÑīÐ¸Ð½Ð°": 5055,
      "Ġrev": 5056,
      "ĠÐµÐ¶": 5057,
      "ĠÑģÑħÐ²Ð°ÑĤ": 5058,
      "Ġce": 5059,
      "Ġsoft": 5060,
      "Ġfactors": 5061,
      "aves": 5062,
      "ĠÐ±Ð¾Ð³Ð°ÑĤ": 5063,
      "Ġcard": 5064,
      "Ġstra": 5065,
      "ĠWall": 5066,
      "ĠÐļÐ°ÑĢ": 5067,
      "expression": 5068,
      "Ġworked": 5069,
      "Ġfield": 5070,
      "Ġmess": 5071,
      "Ð¼ÑĥÑī": 5072,
      "ixed": 5073,
      "related": 5074,
      "ĠÐ¿Ð°Ð»": 5075,
      "ĠÐ³Ð¾ÑģÐ¿Ð¾Ð´Ð¸Ð½": 5076,
      "ufact": 5077,
      "Ġexactly": 5078,
      "Ġparty": 5079,
      "Ġattempt": 5080,
      "ĠÐ´Ð¾Ð±": 5081,
      "Ġred": 5082,
      "ĠJew": 5083,
      "Ġcause": 5084,
      "ĠÑģÑĤÐ°Ð»Ð°": 5085,
      "Ġperhaps": 5086,
      "ÐľÐ½Ðµ": 5087,
      "Ġhope": 5088,
      "ĠÐ¿ÐµÑĢÐµÐ²": 5089,
      "ĠÑĢÑĥÐºÐ¾Ð¹": 5090,
      "ĠÐ¿Ð¾ÐºÐ°": 5091,
      "bu": 5092,
      "Ð¼ÐµÑĢ": 5093,
      "Ġapparent": 5094,
      "Ġschools": 5095,
      "Ġoriginal": 5096,
      "bit": 5097,
      "ĠÐ²ÑĤÐ¾ÑĢ": 5098,
      "Ġstock": 5099,
      "ĠCan": 5100,
      "Ġ60": 5101,
      "Ġbase": 5102,
      "ĠÐŁÐµÑĢ": 5103,
      "omen": 5104,
      "Ġfamilies": 5105,
      "Ð²Ð³": 5106,
      "ĠÐ¾ÑĤÐ¿ÑĢÐ°Ð²": 5107,
      "ĠSome": 5108,
      "ables": 5109,
      "Ġliber": 5110,
      "Ġcalls": 5111,
      "ER": 5112,
      "Ġstop": 5113,
      "Ġantib": 5114,
      "rance": 5115,
      "Ġquestions": 5116,
      "ĠÐ·Ð°Ð½Ð¸Ð¼": 5117,
      "ĠÐ±Ð»Ð°Ð³Ð¾ÑĢÐ¾Ð´": 5118,
      "Ġsqu": 5119,
      "ÐºÐ¸Ñħ": 5120,
      "Ġvisit": 5121,
      "oles": 5122,
      "ĠÐ³Ð¾ÑĢÑıÑĩ": 5123,
      "ĠRepublican": 5124,
      "ĠÐºÐ¾ÑĤÐ¾ÑĢÑĭÐ¼": 5125,
      "ĠÐ½ÐµÐ¿ÑĢÐµÐ¼ÐµÐ½Ð½Ð¾": 5126,
      "ÑıÐ·Ð°Ð½": 5127,
      "ĠWeb": 5128,
      "ĠÐ¸Ð½ÑĤÐµÑĢÐµÑģ": 5129,
      "Ġfriends": 5130,
      "Ġsouth": 5131,
      "ĠÑģÑĤÐµÐ½": 5132,
      "BS": 5133,
      "Ġpers": 5134,
      "ĠÐ¶Ð¸Ð»": 5135,
      "ĠÐ³Ð¾Ð»ÑĥÐ±": 5136,
      "ĠÐ¸Ð´ÑĤÐ¸": 5137,
      "rect": 5138,
      "ÑĤÐ¾Ðµ": 5139,
      "ĠÑĪÐµÐ¿": 5140,
      "ĠÐ»ÑİÐ±Ð¸Ð»": 5141,
      "ĠAngeles": 5142,
      "ÑĩÐµÑĤ": 5143,
      "Ġdecre": 5144,
      "week": 5145,
      "Ġways": 5146,
      "Ð°ÑĢÐ°Ðº": 5147,
      "Ġcourt": 5148,
      "ux": 5149,
      "ĠÃ": 5150,
      "ĠÑģÐ¾Ð²ÐµÑĤ": 5151,
      "ĠÐ¿ÑĢÐ°Ð²Ð¾": 5152,
      "ucleot": 5153,
      "Ġwild": 5154,
      "ĠÐ¾Ð±Ð¼Ð°Ð½": 5155,
      "inn": 5156,
      "ÐĿÐµÑĤ": 5157,
      "ĠÐĿÐ°Ð´": 5158,
      "Ġanyway": 5159,
      "ĠÐ±Ð¾Ð»ÐµÐ·": 5160,
      "Ġthreat": 5161,
      "ulf": 5162,
      "astic": 5163,
      "ĠÑģÐµÑĢÑĮÐµÐ·": 5164,
      "ĠÐĲÐ»ÐµÐºÑģÐ°Ð½Ð´ÑĢÐ¾Ð²": 5165,
      "Ġneeded": 5166,
      "Ð¼Ð¸ÑĢ": 5167,
      "Ġflow": 5168,
      "ĠÑĤÑıÐ¶ÐµÐ»": 5169,
      "Ġmethods": 5170,
      "icians": 5171,
      "ĠÐ¿Ð¾Ð´Ð½Ñı": 5172,
      "Ġwide": 5173,
      "ĠÐ¼Ð°Ð¼": 5174,
      "ruction": 5175,
      "olute": 5176,
      "ĠÐ¾ÑģÑĤÐ°Ð½": 5177,
      "ĠIsrael": 5178,
      "ĠMexic": 5179,
      "ached": 5180,
      "ĠÑħÐ¾ÑĤÐµÐ»Ð¾ÑģÑĮ": 5181,
      "ĠÑĩÐµÑĤÑĭÑĢ": 5182,
      "Ð»ÐµÑĩ": 5183,
      "ĠNot": 5184,
      "Ġneeds": 5185,
      "Ġ<": 5186,
      "Ġacid": 5187,
      "ĠÐ¾Ð±ÑĢÐ°Ð·Ð¾Ð¼": 5188,
      "AA": 5189,
      "Ġfoot": 5190,
      "allas": 5191,
      "ÐĿÑĥ": 5192,
      "Ġregard": 5193,
      "ĠGeorge": 5194,
      "Ġmedical": 5195,
      "Ġrelationship": 5196,
      "ael": 5197,
      "ĠÐ½ÐµÐ¸Ð·": 5198,
      "Ġpresence": 5199,
      "adley": 5200,
      "ĠÐ½Ð°Ð¿ÑĢÐ°Ð²": 5201,
      "Ġaddress": 5202,
      "abor": 5203,
      "ÐµÑģÑģ": 5204,
      "ĠÑĢÑĥÐºÐ°Ñħ": 5205,
      "Ġadded": 5206,
      "Ġpreviously": 5207,
      "ÑĭÐ»Ð°": 5208,
      "ĠÐ²ÐµÐ´": 5209,
      "Ġopt": 5210,
      "Ġbom": 5211,
      "Ġliter": 5212,
      "ĠÑģÑĤÐµÐ¿": 5213,
      "ÐµÐ½ÑĮÐºÐ¸Ð¹": 5214,
      "Ġspace": 5215,
      "Ð½Ð°ÐºÐ¾Ð¼": 5216,
      "irty": 5217,
      "ÑģÑĤÐ²Ð¸Ñı": 5218,
      "ĠÐ·Ð°ÐºÐ¾Ð½": 5219,
      "Ġincluded": 5220,
      "ĠAlthough": 5221,
      "Ġmorning": 5222,
      "ĠÐ®": 5223,
      "Ġlived": 5224,
      "Ġpark": 5225,
      "ips": 5226,
      "Ġwrote": 5227,
      "Ġdrive": 5228,
      "king": 5229,
      "Ġbody": 5230,
      "lease": 5231,
      "ĠMe": 5232,
      "Ġenvironment": 5233,
      "ĠÑĩÐµÑĢÑĤ": 5234,
      "Ð¦": 5235,
      "Ð¾Ð²Ñĥ": 5236,
      "encies": 5237,
      "ĠÑĤÐ°ÐºÐ¾Ð³Ð¾": 5238,
      "ĠÐ³ÑĢÑĥÐ´ÑĮ": 5239,
      "ĠÐłÐ¾ÑģÑģ": 5240,
      "Un": 5241,
      "rely": 5242,
      "Ġchall": 5243,
      "Ġder": 5244,
      "ĠEl": 5245,
      "Ġprinc": 5246,
      "ĠÐ·Ð°ÑģÑĤÐ°Ð²": 5247,
      "activ": 5248,
      "Ġresid": 5249,
      "ĠÐ³ÑĢÑĥÐ´": 5250,
      "ĠState": 5251,
      "Ġcredit": 5252,
      "ÑģÐºÐ¾ÑĢÐ±": 5253,
      "Ð¾ÑģÐ¾Ð±": 5254,
      "Ġpositive": 5255,
      "Ġexperience": 5256,
      "sm": 5257,
      "ÑĭÐ³": 5258,
      "Ġsoon": 5259,
      "Ġgreater": 5260,
      "ĠÐµÐ´Ð¸Ð½": 5261,
      "Ð¾Ð±Ñī": 5262,
      "Ġevents": 5263,
      "Ġmis": 5264,
      "ceed": 5265,
      "ĠGu": 5266,
      "ĠÐ¿Ð¾Ð·Ð´": 5267,
      "Ġbehind": 5268,
      "ĠÐ²ÑĢÐ°Ð³": 5269,
      "At": 5270,
      "aled": 5271,
      "Ġcompl": 5272,
      "ĠÑģÐ²Ð¾Ð¸Ð¼Ð¸": 5273,
      "Ġprovided": 5274,
      "Ġdrugs": 5275,
      "ĠInternet": 5276,
      "ĠÐ¾Ð±Ð¾": 5277,
      "Clinton": 5278,
      "Ð²Ð¸Ð½": 5279,
      "ĠÐ½Ð°ÑģÐ»": 5280,
      "Ð¸Ð¶Ðµ": 5281,
      "ech": 5282,
      "Ġsection": 5283,
      "ĠÐ¿Ð¾Ð´Ð½ÑıÐ»": 5284,
      "ĠÑħÐ¾Ð·ÑıÐ¹": 5285,
      "ĠÑĢÐ°Ð²Ð½Ð¾": 5286,
      "gu": 5287,
      "tra": 5288,
      "ÑĢÐµÐ±": 5289,
      "ternative": 5290,
      "MP": 5291,
      "uk": 5292,
      "ĠÐ½Ð°Ð¿Ð¸Ñģ": 5293,
      "ĠÐ¼ÐµÑģÑĤÐ°": 5294,
      "Ġbill": 5295,
      "ĠPar": 5296,
      "Ġtrial": 5297,
      "iar": 5298,
      "Ġgirl": 5299,
      "Ġbegan": 5300,
      "ĠÐļÑĤÐ¾": 5301,
      "Ġstudents": 5302,
      "ÑįÑĤ": 5303,
      "ĠÑħÐ»ÐµÐ±": 5304,
      "ĠÐ¾ÑĤÐ²Ð¾ÑĢ": 5305,
      "Ġsle": 5306,
      "Ġmer": 5307,
      "uments": 5308,
      "ĠÐļÐ¾Ð½": 5309,
      "Ð¸Ð½ÑĥÐ»": 5310,
      "Ġcertainly": 5311,
      "Ġtissue": 5312,
      "27": 5313,
      "ÐĴÑģ": 5314,
      "aughter": 5315,
      "urance": 5316,
      "ĠÐľÐ¸ÑħÐ°Ð¹": 5317,
      "Ð¸ÑĤÐ°Ð½": 5318,
      "Ð¾ÑĤÑĭ": 5319,
      "Ð¡Ðº": 5320,
      "Ġtried": 5321,
      "Table": 5322,
      "Ġface": 5323,
      "Ð¼Ð°ÑĤÑĢ": 5324,
      "ĠÑĥÐ´Ð¾Ð²Ð¾Ð»ÑĮ": 5325,
      "Ð½Ð°ÑĩÐ°Ð»Ð°": 5326,
      "icrosoft": 5327,
      "Ġbroad": 5328,
      "present": 5329,
      "Ð¸Ð²Ð°ÑıÑģÑĮ": 5330,
      "ĠCo": 5331,
      "yond": 5332,
      "ols": 5333,
      "ÑīÐ¸Ðº": 5334,
      "ĠÐ¿Ð¾ÑĢÑıÐ´": 5335,
      "Ġeconomy": 5336,
      "ĠÐĲÐ½Ð´ÑĢÐµ": 5337,
      "ĠÑģÐ¼ÐµÑĢÑĤÑĮ": 5338,
      "ml": 5339,
      "Ġled": 5340,
      "ĠÐ¾Ð±Ñī": 5341,
      "Ġvote": 5342,
      "ĠStarr": 5343,
      "Ġstatist": 5344,
      "ĠÑıÑģÐ½Ð¾": 5345,
      "Ġtend": 5346,
      "ĠÐºÐ°Ð±": 5347,
      "Ð°Ð´Ð¸": 5348,
      "lex": 5349,
      "while": 5350,
      "Ġsurv": 5351,
      "199": 5352,
      "Ġsamples": 5353,
      "ÐŁÐ¾Ñģ": 5354,
      "ĠUniversity": 5355,
      "coh": 5356,
      "Ð»Ð¾Ð¼": 5357,
      "erous": 5358,
      "ĠÐ¢Ð¾": 5359,
      "ÑıÐ»Ð°ÑģÑĮ": 5360,
      "ĠÐ¾ÑģÐ²": 5361,
      "ĠÐ¾Ð±ÑĬÑıÐ²": 5362,
      "ĠÐ²ÑĩÐµÑĢÐ°": 5363,
      "face": 5364,
      "BC": 5365,
      "ÑĪÐ¸Ð±": 5366,
      "stud": 5367,
      "ĠEd": 5368,
      "Ġeveryone": 5369,
      "ĠÐ¤Ð¾Ð¼Ð°": 5370,
      "Ã¡": 5371,
      "oura": 5372,
      "ĠWest": 5373,
      "formed": 5374,
      "Î²": 5375,
      "ledge": 5376,
      "ĠÐ½ÐµÐ¾Ð±ÑħÐ¾Ð´": 5377,
      "itro": 5378,
      "Ð¾ÑĢÐ¼": 5379,
      "Ġleaders": 5380,
      "Ð¾Ð²Ð°Ð»Ð¸": 5381,
      "ĠDallas": 5382,
      "Ġtaxes": 5383,
      "cells": 5384,
      "atures": 5385,
      "Ġpen": 5386,
      "iful": 5387,
      "Ð¾Ñı": 5388,
      "ĠÐ½Ð°Ð¼Ð¸": 5389,
      "ÐºÐ°Ðº": 5390,
      "ĠÑĩÑĥÐ¶": 5391,
      "ÑħÐ¾Ð´Ñı": 5392,
      "Ð¸Ð²Ð°Ð»Ð°": 5393,
      "ĠÐ¿Ð¾Ð·Ð²Ð¾Ð»": 5394,
      "ccording": 5395,
      "Ġprimary": 5396,
      "ĠÐ²Ð¾Ð·Ð´ÑĥÑħ": 5397,
      "ĠÐ¼Ð³Ð½Ð¾Ð²": 5398,
      "Ġstaff": 5399,
      "ĠPal": 5400,
      "Ġachie": 5401,
      "ĠÐ¿Ð°Ð´": 5402,
      "usion": 5403,
      "ronic": 5404,
      "ĠÐ¸Ð·Ð¼ÐµÐ½": 5405,
      "ĠÐ¼Ð¾Ð»Ð¾Ð´Ð¾Ð¹": 5406,
      "lig": 5407,
      "Ġnation": 5408,
      "ĠÑĢÐ°Ð·ÑĢ": 5409,
      "Ġreading": 5410,
      "Ġimprove": 5411,
      "ÑĢÐ¸Ðº": 5412,
      "ĠÑģÐ¾ÑĢ": 5413,
      "ĠÐ½Ð¸Ð·": 5414,
      "ems": 5415,
      "Ġthinking": 5416,
      "ĠÑģÐ¼ÐµÑħ": 5417,
      "ferred": 5418,
      "Ġpredict": 5419,
      "Ġconditions": 5420,
      "Ð°Ðµ": 5421,
      "ĠcDNA": 5422,
      "romos": 5423,
      "Ġprice": 5424,
      "ĠÐ¿ÑĢÐ¾Ð¸Ñģ": 5425,
      "Ġphosph": 5426,
      "opt": 5427,
      "Ġupon": 5428,
      "ĠÐ´Ð¾Ð»Ð³": 5429,
      "Ġsystems": 5430,
      "mitted": 5431,
      "atin": 5432,
      "enced": 5433,
      "ĠÐ¾Ð±Ð¸Ð´": 5434,
      "Ġclinical": 5435,
      "ĠÑĢÐµÐ·": 5436,
      "Ð°Ð½Ñı": 5437,
      "fection": 5438,
      "ĠÐ¿Ð¾ÑĤÐµÑĢ": 5439,
      "Ð»ÑıÐ´ÑĭÐ²": 5440,
      "ĠÐ²Ð¾ÑģÑĤÐ¾ÑĢ": 5441,
      "Ġsimply": 5442,
      "Is": 5443,
      "ĠÐ³ÑĢÑıÐ·": 5444,
      "Ġphot": 5445,
      "asion": 5446,
      "Ġvict": 5447,
      "Ġneur": 5448,
      "ĠÐ½Ð°Ð²ÐµÑĢ": 5449,
      "Ġmention": 5450,
      "ĠÑĩÐ¸ÑģÑĤ": 5451,
      "ĠÑĤÐ°ÐºÐ°Ñı": 5452,
      "ĠÐ¿Ð¾ÑĩÑĤ": 5453,
      "ĠÐ±Ð»Ð°Ð³Ð¾Ð´Ð°ÑĢ": 5454,
      "unday": 5455,
      "Ġcountries": 5456,
      ",âĢĿ": 5457,
      "Ġpun": 5458,
      "ĠÐ¾ÑĤÑĩÐ°Ñı": 5459,
      "stant": 5460,
      "Ġdoc": 5461,
      "Ġparticularly": 5462,
      "Slate": 5463,
      "Ġplaces": 5464,
      "ĠÐ¿ÑĢÐ¸ÑĪÐµÐ»": 5465,
      "Ġver": 5466,
      "ĠJust": 5467,
      "cap": 5468,
      "Ð²Ð¸Ð¶": 5469,
      "Ġlog": 5470,
      "ÑĥÑİÑĤ": 5471,
      "Ġpublished": 5472,
      "ÑĢÑĮ": 5473,
      "change": 5474,
      "Ġexpect": 5475,
      "ÑģÑĤÑĮÑİ": 5476,
      "ĠÑģÐ°Ð¼Ð¾Ð¹": 5477,
      "ĠIndian": 5478,
      "Ġproced": 5479,
      "gency": 5480,
      "ĠÐ¾ÑĩÐµÐ²": 5481,
      "ÐľÑĭ": 5482,
      "Ġconsum": 5483,
      "ĠÐ»Ð¸ÑĨÐ¾Ð¼": 5484,
      "ĠÐ´ÑĢÑĥÐ³Ð¾": 5485,
      "Ġhighly": 5486,
      "35": 5487,
      "RA": 5488,
      "Ð°Ð²Ð°Ð»": 5489,
      "rial": 5490,
      "ĠÐ¿Ð¾ÑģÑĤÐ°Ð²": 5491,
      "ĠÐ¿Ð¾Ð´Ð¾Ð±": 5492,
      "Ġcoast": 5493,
      "Ġolder": 5494,
      "BI": 5495,
      "oon": 5496,
      "Ġlength": 5497,
      "aint": 5498,
      "stitution": 5499,
      "inte": 5500,
      "Ġdest": 5501,
      "Ġforce": 5502,
      "ĠHar": 5503,
      "ĠÐºÐ¾Ð¼Ð½Ð°ÑĤÑĭ": 5504,
      "Ġeditorial": 5505,
      "Ġdam": 5506,
      "Ð»Ð°ÑĤ": 5507,
      "Ġrunning": 5508,
      "ĠÑħÐ¾ÑĩÐµÑĪÑĮ": 5509,
      "Ġsample": 5510,
      "ĠÐ¡ÑĤÐµÐ¿Ð°Ð½": 5511,
      "otes": 5512,
      "Ġbinding": 5513,
      "Ġbasis": 5514,
      "ament": 5515,
      "Ð¾Ð¶Ð°Ð»": 5516,
      "ĠÐ¿Ð¾Ð´Ð¾ÑĪÐµÐ»": 5517,
      "OP": 5518,
      "Ġdeg": 5519,
      "Ġhistor": 5520,
      "ÑĢÐ¸ÑģÑĤÐ¸": 5521,
      "Ð¸Ð¼ÑģÑı": 5522,
      "inct": 5523,
      "ĠÐ¾ÑģÐºÐ¾ÑĢÐ±": 5524,
      "raq": 5525,
      "Ġlives": 5526,
      "Ġchurch": 5527,
      "lead": 5528,
      "Ð°ÑĢÐ¾Ð²": 5529,
      "ĠÐ½Ð°Ð¼ÐµÑĢ": 5530,
      "Ġincreasing": 5531,
      "men": 5532,
      "Ð°Ð²Ð½Ð¾": 5533,
      "Ġspent": 5534,
      "ÑģÑıÑĤ": 5535,
      "istan": 5536,
      "Ġalone": 5537,
      "ĠÑģÐ°Ð¼ÑĭÐ¹": 5538,
      "Ġgrad": 5539,
      "ĠÐ¿Ð»Ð°Ðº": 5540,
      "ÐµÑģÑĤÐ½Ð¾": 5541,
      "ximately": 5542,
      "ĠÐ¼ÐµÑģÑĤÐµ": 5543,
      "teen": 5544,
      "ĠÐ·Ð°ÐºÐ»ÑİÑĩ": 5545,
      "ĠÐ½Ð°Ð»": 5546,
      "oved": 5547,
      "Ġsold": 5548,
      "itch": 5549,
      "ĠMor": 5550,
      "ĠÐ½ÐµÐ½Ð°Ð²": 5551,
      "Ġboy": 5552,
      "ĠÑģÐºÐ°Ð¶Ñĥ": 5553,
      "ee": 5554,
      "Ġcross": 5555,
      "Ġknew": 5556,
      "Ġproducts": 5557,
      "iated": 5558,
      "Ð½Ð¸ÐºÐ¾Ð¼": 5559,
      "ĠÐ¸Ð¼Ð¿ÐµÑĢ": 5560,
      "avior": 5561,
      "ĠÐ¿Ð¾Ð½Ð¸Ð¼Ð°Ñİ": 5562,
      "ios": 5563,
      "lement": 5564,
      "ension": 5565,
      "Ġcoll": 5566,
      "ĠÑĥÐ²Ð°Ð¶": 5567,
      "Ġremains": 5568,
      "Ġcrime": 5569,
      "Ð½ÑĥÐ²ÑĪÐ¸ÑģÑĮ": 5570,
      "data": 5571,
      "ÐµÐ½Ð½ÑĥÑİ": 5572,
      "Ð¾Ð³Ñĥ": 5573,
      "Ġbillion": 5574,
      "Ġrap": 5575,
      "Ġkey": 5576,
      "ĠÑģÐ»ÐµÐ·Ñĭ": 5577,
      "arian": 5578,
      "ĠÐ±ÑĥÐ´ÑĥÑĤ": 5579,
      "bur": 5580,
      "zed": 5581,
      "Ġeval": 5582,
      "ĠÐ²ÐµÐº": 5583,
      "ĠÐºÑĢÐ°ÑģÐ¸Ð²": 5584,
      "ĠAmericans": 5585,
      "Ġmultiple": 5586,
      "Ġattention": 5587,
      "Ġwin": 5588,
      "ĠThus": 5589,
      "Ġnumbers": 5590,
      "Ġspecies": 5591,
      "ĠÐ±ÐµÑĢÐµÐ³": 5592,
      "How": 5593,
      "ĠSenate": 5594,
      "Ġlik": 5595,
      "ĠÑĤÐ¾ÑĢÐ¶Ðµ": 5596,
      "rs": 5597,
      "test": 5598,
      "Ġmount": 5599,
      "Ġhor": 5600,
      "lied": 5601,
      "Ġassum": 5602,
      "Ġprior": 5603,
      "ĠÐ¼ÐµÑĢÐµ": 5604,
      "Ġrights": 5605,
      "Ġfactor": 5606,
      "ĠÐ´ÐµÐ½ÐµÐ³": 5607,
      "Ġsomew": 5608,
      "22": 5609,
      "aud": 5610,
      "lim": 5611,
      "Ġconv": 5612,
      "ĠMarch": 5613,
      "ĠÐ¢ÑĥÑĤ": 5614,
      "ĠÐ¿Ð¾ÑģÐ¿": 5615,
      "Ġgame": 5616,
      "ĠÑĤÐ°ÐºÐ¸Ñħ": 5617,
      "ensity": 5618,
      "bel": 5619,
      "Ġquick": 5620,
      "ÑĭÐ½Ðµ": 5621,
      "imilar": 5622,
      "ĠÐºÑĢÐµÑģÑĤ": 5623,
      "Ġcollection": 5624,
      "Ġrestaur": 5625,
      "Ð´Ð¸": 5626,
      "Ð¸Ð²ÑĪÐ¸Ð¹": 5627,
      "Ġappropri": 5628,
      "ĠÐ²Ð¾ÑĪÐµÐ»": 5629,
      "ĠToday": 5630,
      "Ġexpected": 5631,
      "ĠÐ²ÐµÑĢÐ½Ð¾": 5632,
      "ĠÐ½Ð°ÑĪÐ¸": 5633,
      "ĠÐ¸ÑģÐ¿ÑĭÑĤ": 5634,
      "Ġsuggests": 5635,
      "Ġneighbor": 5636,
      "ode": 5637,
      "ellig": 5638,
      "known": 5639,
      "miss": 5640,
      "wide": 5641,
      "ÑĢÐ¸ÑģÑĤ": 5642,
      "Ġbrought": 5643,
      "ĠÐ³Ð»Ð°Ð·Ð°Ñħ": 5644,
      "Ġturned": 5645,
      "ĠÐµÐ´Ð²Ð°": 5646,
      "ography": 5647,
      "unction": 5648,
      "fered": 5649,
      "ĠÐ¡ÐµÑĢÐ³": 5650,
      "Ġadministration": 5651,
      "Ġoffer": 5652,
      "Ġfinancial": 5653,
      "ĠÑģÐµÐº": 5654,
      "vey": 5655,
      "terday": 5656,
      "raft": 5657,
      "Ġexc": 5658,
      "ichael": 5659,
      "ĠÐľÐ¾Ð¶": 5660,
      "prob": 5661,
      "ĠÐ¿Ð¾ÑĩÑĥÐ²ÑģÑĤÐ²": 5662,
      "ĠÑģÐ¾Ñĩ": 5663,
      "irth": 5664,
      "udd": 5665,
      "ources": 5666,
      "ĠMcC": 5667,
      "ÑĭÑģ": 5668,
      "ĠÐ·ÑĢ": 5669,
      "ĠÑĢÐ°ÑģÑĤ": 5670,
      "Ð·Ð´": 5671,
      "Ð¸Ð²Ð°Ð»Ð¸": 5672,
      "ĠLad": 5673,
      "ĠÐ¿ÐµÑĢÐµÐ±": 5674,
      "ĠÑĢÑĥÐ±Ð»ÐµÐ¹": 5675,
      "ĠÑģÐ¾Ð¼Ð½": 5676,
      "ĠÐ´ÑĥÑĪÑĥ": 5677,
      "ĠÐ°Ð½Ð³": 5678,
      "ĠÐ²ÑĭÐ¹": 5679,
      "alled": 5680,
      "ĠÐ²ÐµÐ»Ð¸Ñĩ": 5681,
      "ĠÐ¿Ð°Ð¿": 5682,
      "Ġfile": 5683,
      "Ġdeli": 5684,
      "actions": 5685,
      "mor": 5686,
      "itude": 5687,
      "ĠÑĩÐ°ÑģÐ¾Ð²": 5688,
      "Ð¸ÑĤÐ¸": 5689,
      "ĠÐĿÐ°ÑĤÐ°ÑĪÐ°": 5690,
      "ĠÐ²ÑģÑĤ": 5691,
      "Ġgonna": 5692,
      "Ġobvious": 5693,
      "ĠÐ½ÐµÐº": 5694,
      "Ð¸ÑĤÑı": 5695,
      "ĠÐ¿Ð¾ÑĨ": 5696,
      "ĠÐ¿Ð¾Ð´Ð²": 5697,
      "Ġdeveloped": 5698,
      "ĠÑģÑĭÐ½Ð°": 5699,
      "ĠÐ²Ð¾Ð¹ÑģÐº": 5700,
      "ĠÐ²Ð¿Ð¾Ð»": 5701,
      "Ð±Ðµ": 5702,
      "Ġleave": 5703,
      "ĠAss": 5704,
      "ÑĥÐ´ÑĢ": 5705,
      "ĠEn": 5706,
      "igned": 5707,
      "ĠÐ·ÐµÐ¼Ð»Ñİ": 5708,
      "Movie": 5709,
      "Ġdiv": 5710,
      "asons": 5711,
      "imals": 5712,
      "ĠÐ¶Ð°ÑĢ": 5713,
      "ĠPer": 5714,
      "Ġ1998": 5715,
      "Ġmoved": 5716,
      "ecause": 5717,
      "Ġdetermined": 5718,
      "80": 5719,
      "she": 5720,
      "Ġhar": 5721,
      "Ġstructure": 5722,
      "Ġdu": 5723,
      "Ġloss": 5724,
      "alysis": 5725,
      "Ġmiddle": 5726,
      "ĠÐĲÐ»ÐµÑĪÐ°": 5727,
      "ĠÐ¿ÐµÑĢÐµ": 5728,
      "Ġcommit": 5729,
      "Ġanc": 5730,
      "cohol": 5731,
      "ĠÐ·ÑĥÐ±": 5732,
      "ĠÑįÑĤÐ¾Ð¼Ñĥ": 5733,
      "ĠÑģÐ²Ð¾ÐµÐ¼Ñĥ": 5734,
      "rich": 5735,
      "SA": 5736,
      "ĠCor": 5737,
      "Ġflu": 5738,
      "ĠÑģÐµÑĢÐ´ÑĨÐ°": 5739,
      "eled": 5740,
      "ĠÐ¾ÐºÐ½Ð°": 5741,
      "ĠÐ²ÐµÑģÑĮÐ¼Ð°": 5742,
      "ĠLegal": 5743,
      "ĠCenter": 5744,
      "Ġterror": 5745,
      "Ġgard": 5746,
      "ĠIL": 5747,
      "Ġability": 5748,
      "ĠGod": 5749,
      "Ġobtained": 5750,
      "PA": 5751,
      "ris": 5752,
      "ĠÐ¿Ð»Ð°Ñĩ": 5753,
      "ingly": 5754,
      "ĠÑħÐ°ÑĢÐ°Ðº": 5755,
      "Ð¼ÑĥÑĢ": 5756,
      "ĠÐ¿Ð¾ÐºÐ»Ð¾Ð½": 5757,
      "Ġsituation": 5758,
      "Ġsil": 5759,
      "ĠÐ¼Ð¸Ð¼Ð¾": 5760,
      "CD": 5761,
      "ĠÐ±Ð°Ð»": 5762,
      "Ġvill": 5763,
      "ĠÐ²Ð¾Ð»Ð½": 5764,
      "ĠÐ¾ÑģÑĤÑĢ": 5765,
      "ĠÐ¼ÐµÑĢÑĤÐ²": 5766,
      "state": 5767,
      "Ð°Ð¼ÐµÐ½": 5768,
      "Ġproject": 5769,
      "Ġsn": 5770,
      "Ð±Ð¾": 5771,
      "ĠÐ¾Ð¿Ð°Ñģ": 5772,
      "ĠÐ¿Ð¾Ð½ÑıÑĤÑĮ": 5773,
      "ĠRepublicans": 5774,
      "Ġreceived": 5775,
      "Ġnuclear": 5776,
      "Ð¾ÑĢÐ¾Ð´": 5777,
      "ÐµÐ·Ð´Ðµ": 5778,
      "izes": 5779,
      "Ġrelig": 5780,
      "Ġcontrast": 5781,
      "attle": 5782,
      "ĠKing": 5783,
      "obert": 5784,
      "ÑĩÐ¸Ð½": 5785,
      "Ġfire": 5786,
      "semb": 5787,
      "Ġchance": 5788,
      "sych": 5789,
      "ÐŃÑĤÐ¾": 5790,
      "CA": 5791,
      "Ġpaid": 5792,
      "ĠÐłÐ¾ÑģÑĤ": 5793,
      "Ġobject": 5794,
      "Ġmodels": 5795,
      "Ð½Ð¸ÑĨÑĭ": 5796,
      "round": 5797,
      "ÑĤÐ°Ðº": 5798,
      "Ð°Ð½Ð¸Ð¹": 5799,
      "Ġweight": 5800,
      "ĠÑĥÐ½": 5801,
      "Ð¸ÑĨÑĥ": 5802,
      "order": 5803,
      "Ġopportun": 5804,
      "had": 5805,
      "ties": 5806,
      "Ð¼Ð°Ñħ": 5807,
      "ĠÑĢÐ¾Ð±": 5808,
      "ĠÐĴÐ¾": 5809,
      "Ġanyone": 5810,
      "ĠÐ»ÑİÐ±Ð¾Ð¿ÑĭÑĤ": 5811,
      "ĠÐºÐ²Ð°ÑĢ": 5812,
      "Ð°Ð½Ð¸ÐµÐ¼": 5813,
      "ÑģÐºÐ¾Ð¼Ñĥ": 5814,
      "ĠJan": 5815,
      "ĠÐ´Ð¾Ð»Ð¶Ð½Ñĭ": 5816,
      "Ġbelow": 5817,
      "Ġanswer": 5818,
      "Ð´ÑĢÑĥÐ³": 5819,
      "ĠmRNA": 5820,
      "ĠÑħÑĢ": 5821,
      "Ð²Ð¾Ð»ÑĮÑĤÐµ": 5822,
      "bre": 5823,
      "ees": 5824,
      "pan": 5825,
      "ĠÑģÐ¾Ð½": 5826,
      "Ġsound": 5827,
      "ibly": 5828,
      "Ġcontaining": 5829,
      "ĠÐ¾Ð¿ÑĥÑģÑĤ": 5830,
      "ĠÐ½Ð°ÑĩÐ¸Ð½": 5831,
      "ĠÐ½Ð°ÑĩÐ°Ð»ÑĮ": 5832,
      "III": 5833,
      "Ġhybrid": 5834,
      "pir": 5835,
      "Ġhospital": 5836,
      "ĠÐ¿ÑĢÐ°Ð·Ð´": 5837,
      "ĠÐ»Ð¾Ð²": 5838,
      "ĠÐ·ÐµÐ¼Ð»Ðµ": 5839,
      "ÑĢÐ¾Ðº": 5840,
      "Ð¸ÑĤÐµÐ»Ñı": 5841,
      "Ð¾Ð±ÑīÐµ": 5842,
      "Ġrout": 5843,
      "Ġhappened": 5844,
      "Ġnearly": 5845,
      "ĠÑĩÐµÐ¼Ñĥ": 5846,
      "Ġimpact": 5847,
      "ĠDepartment": 5848,
      "ĠÑĢÐ¾Ð¼": 5849,
      "ĠÐ½ÐµÐ²Ð¾Ð·Ð¼Ð¾Ð¶": 5850,
      "ĠQu": 5851,
      "ĠÑĥÐ·Ð½Ð°Ð»": 5852,
      "Ð²Ð¾Ð·ÑĮ": 5853,
      "Ġbought": 5854,
      "ĠÐºÐ¾Ñģ": 5855,
      "imum": 5856,
      "Ġexhib": 5857,
      "Ġdeep": 5858,
      "Ġwritten": 5859,
      "ĠÐ·Ð½Ð°ÑĩÐ¸ÑĤ": 5860,
      "ĠÑģÑĢÐµÐ´Ð¸": 5861,
      "Ġpan": 5862,
      "ÐµÑĤÑĭ": 5863,
      "ÑħÐ¾Ð´Ð¸Ð»": 5864,
      "Ġgenome": 5865,
      "Times": 5866,
      "ordin": 5867,
      "ĠÐ¿Ð¾Ð½ÑıÐ»": 5868,
      "Ġsignificantly": 5869,
      "pose": 5870,
      "wood": 5871,
      "Ġ26": 5872,
      "Ð½ÑıÑı": 5873,
      "ĠÐ¿Ð¾ÑħÐ¾Ð¶": 5874,
      "odies": 5875,
      "ĠÐ´ÑĢÑĥÐ³Ð¾Ð³Ð¾": 5876,
      "ÐºÐ¾Ð³Ð¾": 5877,
      "ĠSch": 5878,
      "ĠÐ¿Ð¾Ð´ÑĢ": 5879,
      "ĠÑĢÐ°Ð·Ð´ÑĢ": 5880,
      "Ġfib": 5881,
      "Ð°ÐºÐ¾Ð½ÐµÑĨ": 5882,
      "Ġwriting": 5883,
      "Ġlabor": 5884,
      "ĠÐ±ÑĥÐ¼Ð°Ð³": 5885,
      "ÑĥÐ¶Ðµ": 5886,
      "ago": 5887,
      "ĠÐĿÐ¸ÐºÐ¾Ð»Ð°": 5888,
      "Ġperformance": 5889,
      "Ġmole": 5890,
      "Ġnotes": 5891,
      "Ġintegr": 5892,
      "ĠÐ²ÑģÐµÐ¼Ð¸": 5893,
      "Ġly": 5894,
      "ĠÐ¼Ð°Ñģ": 5895,
      "Ġplant": 5896,
      "ĠÑģÐ»ÑĭÑĪÐ°Ð»": 5897,
      "ana": 5898,
      "anced": 5899,
      "Ġmuseum": 5900,
      "ÑģÐºÐ°Ð·": 5901,
      "Ã³": 5902,
      "also": 5903,
      "Ġfigure": 5904,
      "ĠÐ±ÐµÐ¶": 5905,
      "Ð¾ÑĤÐ°Ð»": 5906,
      "elebr": 5907,
      "page": 5908,
      "top": 5909,
      "Ġhost": 5910,
      "Ġ28": 5911,
      "Ġearlier": 5912,
      "omic": 5913,
      "ĠÐ¼Ð¾Ð³Ð»Ð¸": 5914,
      "ĠÑĥÐ»ÑĭÐ±ÐºÐ¾Ð¹": 5915,
      "after": 5916,
      "ÑĤÑı": 5917,
      "ĠÑģÐºÑĥÑĩ": 5918,
      "Ġ2000": 5919,
      "Ġtrade": 5920,
      "ĠÐ³ÑĢÑĥÑģÑĤ": 5921,
      "Ġbrain": 5922,
      "Ġdire": 5923,
      "ĠÑĢÐµÐ´": 5924,
      "overed": 5925,
      "ĠÐ½Ð°ÑĩÐ°Ð»Ð°": 5926,
      "Ġcentral": 5927,
      "TP": 5928,
      "Ġbab": 5929,
      "ÑĥÐ¶ÐµÐ»Ð¸": 5930,
      "Ð°Ð¶Ð¸": 5931,
      "Ġrespond": 5932,
      "ĠÐ²ÐµÑģÐµÐ»Ð¾": 5933,
      "Ġgenerally": 5934,
      "ĠÐĽÐµÐ²Ð¸Ð½": 5935,
      "dist": 5936,
      "really": 5937,
      "Ġpeace": 5938,
      "mat": 5939,
      "ĠÐ¾ÑħÐ¾ÑĤ": 5940,
      "cycl": 5941,
      "Ġ2001": 5942,
      "Ġexperiments": 5943,
      "ctors": 5944,
      "Ġeth": 5945,
      "ĠÐ¿ÑĢÐ¸ÑģÑĤ": 5946,
      "Ġhappen": 5947,
      "Ð¸ÑĤÑĢÐ¸Ð¹": 5948,
      "between": 5949,
      "may": 5950,
      "ĠÑĤÐµÐ¿": 5951,
      "ques": 5952,
      "ĠÐ³Ð¾ÑģÑĤÐ¸Ð½": 5953,
      "ashion": 5954,
      "Ġsounds": 5955,
      "Ġbed": 5956,
      "ĠIraq": 5957,
      "Ġheld": 5958,
      "Ġsecret": 5959,
      "izations": 5960,
      "Ġ197": 5961,
      "ĠÐ¿Ð¾Ð¼Ð½": 5962,
      "Ð´Ñĭ": 5963,
      "levision": 5964,
      "down": 5965,
      "report": 5966,
      "ĠÐĺÐ»ÑĮ": 5967,
      "equ": 5968,
      "Ð¾Ð´Ñĭ": 5969,
      "ĠÐ´ÑĢÑĥÐ³Ð¾Ðµ": 5970,
      "Ġphen": 5971,
      "ĠÐ¿Ð»Ð°ÑĤÑĮ": 5972,
      "Ð§ÑĤÐ¾Ð±": 5973,
      "Ġ1996": 5974,
      "Ġcarry": 5975,
      "Ġdoub": 5976,
      "Ð»ÑıÑĤ": 5977,
      "ĠÐ¾Ð´Ð½Ð¸Ð¼": 5978,
      "Ġground": 5979,
      "ĠÐķÐ³Ð¾": 5980,
      "ipp": 5981,
      "ulate": 5982,
      "ourt": 5983,
      "Ġmyself": 5984,
      "ÑĢÐ°Ð²ÐµÐ´": 5985,
      "ĠÐ´ÑĥÐ¼Ð°ÑĤÑĮ": 5986,
      "ĠÐ³Ð¾ÑģÑĥÐ´Ð°ÑĢÑĮ": 5987,
      "these": 5988,
      "ĠÐ¡Ð°Ð¼": 5989,
      "Ġ27": 5990,
      "Ġwants": 5991,
      "ĠUSA": 5992,
      "ÐµÑĤÐµÐ»ÑĮ": 5993,
      "eb": 5994,
      "mar": 5995,
      "Ġmouse": 5996,
      "Ġlay": 5997,
      "ama": 5998,
      "Ġmovies": 5999,
      "Ġfavorite": 6000,
      "26": 6001,
      "gy": 6002,
      "ĠÐ³Ð½ÐµÐ²": 6003,
      "ĠOther": 6004,
      "ĠÑĥÐ»ÑĭÐ±Ð°ÑıÑģÑĮ": 6005,
      "effect": 6006,
      "Î±": 6007,
      "Ġhuge": 6008,
      "Ð¾ÑĢÐ¾ÑĪÐ¾": 6009,
      "Ġlimited": 6010,
      "Ġtechnology": 6011,
      "ĠAfric": 6012,
      "Ìģ": 6013,
      "ĠÐ¼ÐµÐ»": 6014,
      "Ġvolume": 6015,
      "ĠÐ²Ð¾Ðº": 6016,
      "ĠDavid": 6017,
      "Ġshare": 6018,
      "ÑĥÑħÐ°": 6019,
      "ĠSept": 6020,
      "such": 6021,
      "Ð»Ð°Ðº": 6022,
      "urt": 6023,
      "ĠEast": 6024,
      "Ġmanufact": 6025,
      "ĠÐ´ÑĥÑĪÐ°": 6026,
      "ĠÐ½ÐµÐ²Ð¾Ð»ÑĮ": 6027,
      "ares": 6028,
      "mber": 6029,
      "oring": 6030,
      "ĠChar": 6031,
      "Ð¾Ð¶Ñĥ": 6032,
      "ĠÐĿÐ°ÑģÑĤ": 6033,
      "ĠÐºÐ°ÑĢÑĤ": 6034,
      "ĠÐ¾ÑģÑĤÐ°Ð½Ð¾Ð²Ð¸Ð»ÑģÑı": 6035,
      "Ð²ÑĢ": 6036,
      "oper": 6037,
      "ĠÐ¿Ð¾Ð»Ð¾Ð²": 6038,
      "ĠÐ»ÑİÐ±Ð¸ÑĤ": 6039,
      "Ð°Ð¶Ð´Ñĭ": 6040,
      "ĠÑĪÐ»Ñı": 6041,
      "ĠÑĢÐ°Ð´Ð¾ÑģÑĤ": 6042,
      "Ġchem": 6043,
      "ĠÐ²Ð·Ð´Ð¾Ñħ": 6044,
      "ÃŃ": 6045,
      "Ð¸Ð¾Ð½": 6046,
      "entially": 6047,
      "Ġnarr": 6048,
      "ĠÐ¿Ð¾ÐºÐ¾Ð¹": 6049,
      "Ġeffective": 6050,
      "uction": 6051,
      "ingu": 6052,
      "ĠÐ²ÑģÐ»ÐµÐ´": 6053,
      "antly": 6054,
      "ĠÐ¾Ð±ÐµÑī": 6055,
      "ĠÐ¿Ð¾Ð±ÐµÐ´": 6056,
      "rict": 6057,
      "Ġhon": 6058,
      "ĠÐ·Ð°Ñħ": 6059,
      "ĠÐ¿Ð¾ÑģÑĤÐ¾": 6060,
      "ĠÐ³ÑĢÐ¾Ð·": 6061,
      "That": 6062,
      "het": 6063,
      "ĠÑĤÐ¾ÑĢÐ¾Ð¿": 6064,
      "ĠLewinsky": 6065,
      "ĠÐºÐ¾Ð¿": 6066,
      "ĠÐ¾ÑĤÑģ": 6067,
      "Ġdirectly": 6068,
      "Rep": 6069,
      "ĠÑģÐ²ÑıÑĤ": 6070,
      "lick": 6071,
      "ĠÐ±Ð¾Ð»ÑĮÑĪÐ¾Ð¹": 6072,
      "long": 6073,
      "Ġtit": 6074,
      "room": 6075,
      "Ġkin": 6076,
      "ĠBo": 6077,
      "ellow": 6078,
      "Ġfollowed": 6079,
      "ĠÑģÑĤÑĢÐ°Ð½Ð½Ð¾": 6080,
      "28": 6081,
      "uous": 6082,
      "Ð¸ÑĦ": 6083,
      "ÐŁÐµÑĢ": 6084,
      "ĠHill": 6085,
      "exper": 6086,
      "Ġregions": 6087,
      "ĠÐ³ÑĥÐ±ÐµÑĢ": 6088,
      "ÑĢÐ°Ðº": 6089,
      "Ġbal": 6090,
      "ĠÐ¼ÑĥÐ·": 6091,
      "adem": 6092,
      "ĠÐ»Ð°Ð²": 6093,
      "ĠÐ½Ð°ÑĪÐµÐ³Ð¾": 6094,
      "ĠÐ¿ÑĢÐ¸Ð½ÐµÑģ": 6095,
      "ĠÐ¼Ð¸Ð½ÑĥÑĤÑĭ": 6096,
      "supp": 6097,
      "Ġsource": 6098,
      "different": 6099,
      "OR": 6100,
      "itation": 6101,
      "oud": 6102,
      "Ð¾ÑģÑħÐ¾Ð´": 6103,
      "ĠÐ¾ÑĤÑĢ": 6104,
      "Ġprep": 6105,
      "aught": 6106,
      "Ġcalcul": 6107,
      "ĠÑģÐ»ÑĥÑĩÐ°Ðµ": 6108,
      "brane": 6109,
      "ĠÐ¸Ð¼ÐµÐ»": 6110,
      "ĠÐ¿ÑĢÐµÐ´Ð»Ð¾Ð¶": 6111,
      "Ġdecided": 6112,
      "ĠÑģÐ¸Ð»Ñĭ": 6113,
      "ĠBradley": 6114,
      "ĠÐ¾Ð±Ðµ": 6115,
      "ĠÐĶÐ¾Ð»": 6116,
      "array": 6117,
      "Ð½ÑİÑİ": 6118,
      "Ġnecessary": 6119,
      "ĠWilliam": 6120,
      "Ġjournal": 6121,
      "ĠRich": 6122,
      "Ġfamous": 6123,
      "wing": 6124,
      "eared": 6125,
      "Ð¾Ð·ÑĢ": 6126,
      "Ġrock": 6127,
      "ĠÑģÐ¿ÑĢÐ¾ÑģÐ¸Ð»Ð°": 6128,
      "Ġdesigned": 6129,
      "ĠÐ³ÑĢÑĥÐ´Ð¸": 6130,
      "ĠÐ´Ð¾Ñĩ": 6131,
      "ĠMore": 6132,
      "ĠÐ½Ð°ÑģÑĤÐ¾ÑıÑī": 6133,
      "incre": 6134,
      "Ġpal": 6135,
      "ÑĪÑĮ": 6136,
      "Ġnamed": 6137,
      "ĠÐ¿Ð¾Ð¼Ð½Ñİ": 6138,
      "ĠÐ¶ÐµÐ½ÑīÐ¸Ð½Ñĭ": 6139,
      "Ġannoun": 6140,
      "Ġtypes": 6141,
      "light": 6142,
      "Ġspl": 6143,
      "ĠÐ´Ð½Ð¸": 6144,
      "Ġchann": 6145,
      "ĠWhile": 6146,
      "sis": 6147,
      "Ġfight": 6148,
      "iling": 6149,
      "Ġcorrespond": 6150,
      "ĠBin": 6151,
      "ocks": 6152,
      "ĠÐľÐ°Ðº": 6153,
      "ĠSunday": 6154,
      "Ġsimple": 6155,
      "ĠÐĿÐµÑħÐ»ÑİÐ´Ð¾Ð²": 6156,
      "ÑĪÐ°": 6157,
      "been": 6158,
      "duction": 6159,
      "nic": 6160,
      "ĠÑģÐ¾ÑģÑĤÐ°Ð²": 6161,
      "ĠÐ¿Ð°Ð¼": 6162,
      "level": 6163,
      "Ð¾Ð»Ð²": 6164,
      "aded": 6165,
      "through": 6166,
      "ĠÑģÐ²ÑıÐ·": 6167,
      "ĠÐ±Ð»ÐµÑģÑĤ": 6168,
      "ĠÑģÐ¸Ñħ": 6169,
      "ĠÐ¿ÑĢÐ¾Ð½": 6170,
      "ille": 6171,
      "ĠÐ½Ð°ÑĩÐ¸Ð½Ð°": 6172,
      "ĠAb": 6173,
      "Ġcommer": 6174,
      "then": 6175,
      "ĠÐ¤Ð¸Ð»": 6176,
      "ĠÐ³Ð¾ÑģÐ¿Ð¾Ð´Ð°": 6177,
      "ÐµÑģÑĤÐ²Ð¾": 6178,
      "ĠÐ¸Ð´Ðµ": 6179,
      "ĠÐ´Ð¾Ð¿": 6180,
      "ÑĭÐ²Ð°ÐµÑĤ": 6181,
      "Ġseries": 6182,
      "ĠÐ¾ÑĪÐ¸Ð±": 6183,
      "Ġisol": 6184,
      "ĠPat": 6185,
      "ĠÐ¾Ð±Ð°": 6186,
      "plement": 6187,
      "American": 6188,
      "ĠÑĢÐ°Ð·Ð´ÑĢÐ°Ð¶": 6189,
      "Ġaren": 6190,
      "clusion": 6191,
      "ES": 6192,
      "Ġmid": 6193,
      "Ð¸Ð¼ÐµÑĢ": 6194,
      "Ġimmedi": 6195,
      "Ġcas": 6196,
      "ĠÑĢÐ°Ð½": 6197,
      "ÑĥÑĪÐºÑĥ": 6198,
      "rupt": 6199,
      "Ġlearn": 6200,
      "Ġ`": 6201,
      "ĠÑģÐ¸Ð»Ð°": 6202,
      "icles": 6203,
      "ĠÑĩÐ°Ð¹": 6204,
      "ĠÐ»Ð¸Ñĩ": 6205,
      "ĠÑģÐ»ÑĥÑĩÐ°Ð¹": 6206,
      "Ġut": 6207,
      "ĠFirst": 6208,
      "ferences": 6209,
      "ĠÎ¼g": 6210,
      "Ġdistribution": 6211,
      "CC": 6212,
      "ager": 6213,
      "ĠÐ¾ÑĤÐ²ÐµÑĤÐ¸Ð»": 6214,
      "ĠÐ³Ð»Ð°Ð²Ð½Ð¾Ðµ": 6215,
      "100": 6216,
      "Ġinsurance": 6217,
      "Ġhouses": 6218,
      "ÑģÐ°": 6219,
      "ĠÑģÐ¸Ð½": 6220,
      "ĠÐ¿Ð¾Ð»ÑĮÐ·": 6221,
      "ĠÐ¿ÑĢÐµ": 6222,
      "tered": 6223,
      "Ġ190": 6224,
      "Ġdetermine": 6225,
      "Ġpack": 6226,
      "Ġapplic": 6227,
      "Ġpressure": 6228,
      "fin": 6229,
      "uate": 6230,
      "Ġhit": 6231,
      "ĠÐ´Ð¾ÑĩÑĮ": 6232,
      "Ġtherefore": 6233,
      "Ġspot": 6234,
      "iance": 6235,
      "Ð¸Ð»Ð¾Ð²": 6236,
      "ĠMicrosoft": 6237,
      "ĠÑģÐ»Ð°Ð´": 6238,
      "prof": 6239,
      "ĠÐ¾ÐºÑĢÑĥÐ¶": 6240,
      "ĠÐ¸ÑģÐºÑĢ": 6241,
      "Ġgrowing": 6242,
      "ĠÐºÑĢÐ¸ÐºÐ½ÑĥÐ»": 6243,
      "ĠÐ¾ÑĩÐµÐ²Ð¸Ð´Ð½Ð¾": 6244,
      "Ġmach": 6245,
      "Ġnatural": 6246,
      "ĠÐ³ÑĢÑĥÐ±": 6247,
      "two": 6248,
      "Ġconne": 6249,
      "Ġappears": 6250,
      "Ġfig": 6251,
      "Ġnature": 6252,
      "Ġgives": 6253,
      "itely": 6254,
      "ĠÐ´ÐµÑĤÐµÐ¹": 6255,
      "ĠÑģÑĤÑĢÐ°ÑĪÐ½Ð¾": 6256,
      "ĠÐ´Ð¾ÑģÐ°Ð´": 6257,
      "Ġdied": 6258,
      "unk": 6259,
      "ĠÐ»Ð°ÑģÐºÐ¾Ð²": 6260,
      "Ġtherap": 6261,
      "Ġdemand": 6262,
      "Ð¾ÑıÑĤÐ½Ð¾": 6263,
      "posted": 6264,
      "ĠÐ²Ð¸Ð½Ð¾Ð²Ð°ÑĤ": 6265,
      "Book": 6266,
      "ĠÑħÐ¾ÑĤÐµÐ»Ð°": 6267,
      "Ġreceptor": 6268,
      "ont": 6269,
      "Ġrandom": 6270,
      "ĠÐ»ÑİÐ±Ð¾Ð²": 6271,
      "ĠÐ¾Ð³ÑĢÐ¾Ð¼": 6272,
      "53": 6273,
      "iate": 6274,
      "ÑĤÐ¾Ð½": 6275,
      "Ð¸Ð¼Ð°": 6276,
      "iff": 6277,
      "orthern": 6278,
      "ĠÐ¡Ð»": 6279,
      "ÐļÐ½ÑıÐ·ÑĮ": 6280,
      "ĠÑģÐ»Ð¾Ð²Ð¾Ð¼": 6281,
      "ĠÐ¸ÑģÐ¿Ð¾Ð»Ð½": 6282,
      "Ġproduction": 6283,
      "ĠÐ¿ÑĢÐ¸Ð·Ð½Ð°": 6284,
      "ĠÐ½Ð¾ÑĩÐ¸": 6285,
      "Ġthousand": 6286,
      "did": 6287,
      "Ġfr": 6288,
      "ĠÐ±ÑĥÑĢ": 6289,
      "ĠÐŁÐ¾ÑĤÐ¾Ð¼": 6290,
      "ĠÐ´Ð¾ÐºÑĤÐ¾ÑĢ": 6291,
      "Ġofficials": 6292,
      "29": 6293,
      "ĠTable": 6294,
      "ĠMin": 6295,
      "Ġworkers": 6296,
      "Ġthus": 6297,
      "ĠÑĤÑĥÐ´Ð°": 6298,
      "ÐĽÑİÐ±": 6299,
      "ĠÐ±Ð¾Ð³Ð°": 6300,
      "ĠÐºÑĢÐ°Ð¹Ð½ÐµÐ¹": 6301,
      "Ġsociety": 6302,
      "alian": 6303,
      "Ġinn": 6304,
      "Ġ29": 6305,
      "233": 6306,
      "Ġwonderful": 6307,
      "When": 6308,
      "Ġdram": 6309,
      "Ð»ÑıÐµÑĤ": 6310,
      "ĠÐ³Ð¾Ð»Ð¾Ð²Ðµ": 6311,
      "ĠÑĪÐ»ÑıÐ¿": 6312,
      "Ġlat": 6313,
      "Ġeat": 6314,
      "ĠÑģÑĤÑĥÐ¿": 6315,
      "ĠÑĥÐ¿ÑĢ": 6316,
      "appro": 6317,
      "AO": 6318,
      "One": 6319,
      "Ð»Ð°Ð·": 6320,
      "arter": 6321,
      "ĠÑĩÐ¸Ð½Ð¾Ð²": 6322,
      "osing": 6323,
      "Ġproposed": 6324,
      "ĠPCR": 6325,
      "Ġcomment": 6326,
      "IA": 6327,
      "Ġbott": 6328,
      "âĢ¢": 6329,
      "Ġscient": 6330,
      "Ġprovides": 6331,
      "agon": 6332,
      "uesday": 6333,
      "ÑĢÐ¸ÑģÑĤÐ¸Ð°Ð½": 6334,
      "Ġgovern": 6335,
      "XX": 6336,
      "ÑĮÑĤÐµ": 6337,
      "ÐµÐ»Ñİ": 6338,
      "Ġregular": 6339,
      "mp": 6340,
      "met": 6341,
      "Ġdead": 6342,
      "Ġcontinue": 6343,
      "Ġclaims": 6344,
      "ÑĭÐ½Ñı": 6345,
      "Ġlooks": 6346,
      "Ġsen": 6347,
      "ĠÐ´Ðµ": 6348,
      "Ġprogress": 6349,
      "Ð¾Ð²Ð¾ÑĢÐ¸Ð»Ð°": 6350,
      "ĠEven": 6351,
      "ondon": 6352,
      "ĠÐ¶ÐµÐ½Ð°": 6353,
      "ĠÑĩÑĢÐµÐ·Ð²ÑĭÑĩÐ°Ð¹Ð½Ð¾": 6354,
      "ĠÑĤÐµÑĤ": 6355,
      "ĠÐ½ÐµÐ¾Ð¶Ð¸Ð´": 6356,
      "olf": 6357,
      "ÐķÐĿ": 6358,
      "een": 6359,
      "Ð°Ð²Ð»Ð¸Ð²": 6360,
      "Ġproduced": 6361,
      "ĠÐ¾Ð´Ð½Ð¾Ð¼": 6362,
      "Ġ2004": 6363,
      "All": 6364,
      "ĠLaw": 6365,
      "Ġleading": 6366,
      "200": 6367,
      "even": 6368,
      "class": 6369,
      "ĠÐ»ÑİÐ±Ð¸ÑĤÑĮ": 6370,
      "ĠÐ²Ð¾Ð·Ð±": 6371,
      "ĠÐ´ÐµÑģÑıÑĤÑĮ": 6372,
      "ĠÑĥÐ´ÐµÑĢÐ¶": 6373,
      "Ġactivities": 6374,
      "ĠÐ±ÐµÑģÐ¿Ð¾ÐºÐ¾Ð¹": 6375,
      "non": 6376,
      "Ġaffect": 6377,
      "orter": 6378,
      "ĠSer": 6379,
      "ĠMond": 6380,
      "Ġamino": 6381,
      "Ġmeaning": 6382,
      "Ġtraining": 6383,
      "ĠÑħÐ¾ÑĤÐ¸ÑĤÐµ": 6384,
      "ĠÐ¸ÑģÑĩ": 6385,
      "Ġefforts": 6386,
      "21": 6387,
      "Ð°Ð²ÑĪÐ¸Ðµ": 6388,
      "ĠÐ¿ÑĢÐ¸Ð±Ð°Ð²Ð¸Ð»": 6389,
      "ĠÐĿÐ°Ð¿Ð¾Ð»Ðµ": 6390,
      "sing": 6391,
      "Ð°Ð½ÑĮÑı": 6392,
      "ĠÑģÐ¿Ð¾ÑģÐ¾Ð±": 6393,
      "ÑĥÐ¹ÑĤÐµ": 6394,
      "Ġabsolute": 6395,
      "zz": 6396,
      "Ġcust": 6397,
      "ĠÐºÐ°ÐºÑĥÑİ": 6398,
      "Ġsecurity": 6399,
      "Ġarri": 6400,
      "car": 6401,
      "Ġgra": 6402,
      "Ġimm": 6403,
      "ĠÑģÐ»Ð¾Ð²Ð½Ð¾": 6404,
      "Ġincome": 6405,
      "ĠÑģÐ½ÐµÐ³": 6406,
      "ÑĤÐ¾Ð¶": 6407,
      "ĠPart": 6408,
      "Ġprotect": 6409,
      "Ġfinally": 6410,
      "Ġcirc": 6411,
      "Ġmail": 6412,
      "Ġphone": 6413,
      "Ġcritic": 6414,
      "ĠEuropean": 6415,
      "ÐµÐ½Ð½ÑĭÐ¼Ð¸": 6416,
      "ĠÐ¼ÐµÑĩÑĤ": 6417,
      "ĠÐ¿ÑĢÐµÐ·ÑĢ": 6418,
      "LA": 6419,
      "Ġjo": 6420,
      "Ġchanged": 6421,
      "isions": 6422,
      "Ð¾ÑĢÐ¸Ñģ": 6423,
      "ĠÑĤÐ¾ÑģÐº": 6424,
      "Ð¿Ð¾Ð»Ð¾Ð¶": 6425,
      "Ð°ÑĤÐ¾ÑĢ": 6426,
      "hest": 6427,
      "anish": 6428,
      "Ð¾Ð´Ð½Ð¾": 6429,
      "uries": 6430,
      "ĠÐ²ÐµÑĢÑħ": 6431,
      "gene": 6432,
      "Ġbrother": 6433,
      "Ġnames": 6434,
      "Ð¸Ð²Ð¾": 6435,
      "Ð°Ð¶Ñĥ": 6436,
      "ĠÐ°Ð´": 6437,
      "ÐĺÐķ": 6438,
      "ĠKen": 6439,
      "Ġlarger": 6440,
      "ĠÑĢÐµÐº": 6441,
      "ĠÐ»ÐµÑģÑĤ": 6442,
      "Ð¶Ð¸": 6443,
      "ĠÐ¿Ð¾Ð´Ð´": 6444,
      "ĠÐ´Ð²ÐµÑĢ": 6445,
      "ĠÐľÐ¸ÑħÐ°Ð¹Ð»Ð¾Ð²": 6446,
      "Ex": 6447,
      "Ġanimals": 6448,
      "ĠÐ²Ð»ÑİÐ±": 6449,
      "ĠÑĩÐµÑģÑĤÑĮ": 6450,
      "ÑĨÐ°Ð¼Ð¸": 6451,
      "Ġweap": 6452,
      "iled": 6453,
      "cription": 6454,
      "ĠÑĥÐ¹": 6455,
      "Ġpull": 6456,
      "key": 6457,
      "Ġjury": 6458,
      "itect": 6459,
      "ĠÑĤÑĢÐµÐ²": 6460,
      "Ġcoverage": 6461,
      "Ġintro": 6462,
      "Ð°Ð²ÑĪÐ¸ÑģÑĮ": 6463,
      "pret": 6464,
      "fort": 6465,
      "rations": 6466,
      "Ġrecomm": 6467,
      "ĠÐºÐ°ÐºÐ¾Ð³Ð¾": 6468,
      "ĠMost": 6469,
      "develop": 6470,
      "ĠÐ±ÐµÑģÐ¿ÑĢ": 6471,
      "ĠÐ¾ÑĤÐºÐ°Ð·": 6472,
      "Ġbeautiful": 6473,
      "Ġ:": 6474,
      "Ġaw": 6475,
      "ĠÑģÐ¼ÑĥÑī": 6476,
      "Ð¾ÑĢÐµ": 6477,
      "ĠÑģÑĤÐ¾Ð»ÑĮÐºÐ¾": 6478,
      "ĠÐĵÐ¾Ð»ÑıÐ´": 6479,
      "NY": 6480,
      "upp": 6481,
      "Ġsat": 6482,
      "ĠBro": 6483,
      "ÐµÑģÐ¿ÐµÑĢ": 6484,
      "ĠÐ½ÐµÐ¿Ð¾Ð´": 6485,
      "ĠÑģÐ¸Ð»ÑĮÐ½Ð¾": 6486,
      "ĠÐ¤ÐµÐ´Ð¾ÑĢÐ¾Ð²Ð¸Ñĩ": 6487,
      "nes": 6488,
      "Ġsea": 6489,
      "Ġdress": 6490,
      "Ġreform": 6491,
      "imp": 6492,
      "ĠMuseum": 6493,
      "ĠÐ·Ð°Ñī": 6494,
      "ĠLa": 6495,
      "ĠÐ¢Ð¾Ð»": 6496,
      "prov": 6497,
      "ĠÐ·Ð»Ð¾Ð±": 6498,
      "Ð»ÐµÐ½Ð¸ÐµÐ¼": 6499,
      "Ġbank": 6500,
      "Ġfat": 6501,
      "Ġkm": 6502,
      "Ġexecut": 6503,
      "ÐļÑĤÐ¾": 6504,
      "ÐµÐ½Ð¸ÑıÑħ": 6505,
      "Ð½Ð¸ÑĨÑĥ": 6506,
      "ĠÑĤÑıÐ¶ÐµÐ»Ð¾": 6507,
      "opping": 6508,
      "ÑĢÐ°Ð»": 6509,
      "Ġox": 6510,
      "Ġkept": 6511,
      "stitute": 6512,
      "ĠÐĵÐ¾ÑģÐ¿Ð¾Ð´": 6513,
      "Ð¾Ð³Ð¸": 6514,
      "ĠMy": 6515,
      "Ġexer": 6516,
      "Ġpromot": 6517,
      "Ġallowed": 6518,
      "ĠÐ¿ÑĢÐµÐ²Ð¾ÑģÑħÐ¾Ð´": 6519,
      "ada": 6520,
      "ĠÑĩÑĥÐ²ÑģÑĤÐ²Ð°": 6521,
      "ĠÐ¡ÑĤÐ°ÑĢ": 6522,
      "Ġconcentration": 6523,
      "ĠÐ¸ÑģÑĤ": 6524,
      "antic": 6525,
      "Ġagre": 6526,
      "ĠÐ¿Ð¾ÐºÐ¾ÑĢ": 6527,
      "group": 6528,
      "Ġtreated": 6529,
      "ĠÐ½Ð°ÑĢÐ¾ÑĩÐ½Ð¾": 6530,
      "ĠÐ¦": 6531,
      "ĠÑģÑĥÐ¿": 6532,
      "Ġnine": 6533,
      "ÑĨÐµÐ½": 6534,
      "ĠÐĽÑİÐ±": 6535,
      "Ġruns": 6536,
      "Ġdepend": 6537,
      "ÑĢÐµ": 6538,
      "isc": 6539,
      "antage": 6540,
      "people": 6541,
      "ĠÐ»ÑİÐ±ÐµÐ·": 6542,
      "ĠÐ¿ÑĢÐ¸ÑĢ": 6543,
      "ĠÐ½Ð°Ñħ": 6544,
      "Ġnote": 6545,
      "Ġofficial": 6546,
      "Ġcelebr": 6547,
      "Ð°Ð½Ñĥ": 6548,
      "ĠPort": 6549,
      "Ġunf": 6550,
      "ĠÑĥÐ³ÑĢ": 6551,
      "Ar": 6552,
      "ĠÐ²ÑģÑĤÐ°Ð»": 6553,
      "ÑĪÑĥÑİ": 6554,
      "Ġreach": 6555,
      "Ð½ÑĥÐ»Ð¸": 6556,
      "Ġspending": 6557,
      "Ð¸Ð¿Ð¿": 6558,
      "only": 6559,
      "Ġswe": 6560,
      "Ð¸Ð»Ð¸Ð¹": 6561,
      "ĠÑĥÑħ": 6562,
      "ĠÑģÑĤÐ¸Ñħ": 6563,
      "berg": 6564,
      "ĠÐ´Ð¾Ð»Ð¶Ð½Ð°": 6565,
      "ĠÑģÐ¼Ð¾ÑĤÑĢÐµÑĤÑĮ": 6566,
      "Ġinternational": 6567,
      "Ġfill": 6568,
      "Ð°Ð½Ð½ÑĭÐµ": 6569,
      "Ð¾ÑĤÑĥ": 6570,
      "Ð¸Ð±Ð¾": 6571,
      "mem": 6572,
      "osov": 6573,
      "ĠÐ¾Ð¿ÑĢÐ°Ð²": 6574,
      "ĠÑģÐ¾Ð·Ð½Ð°": 6575,
      "Ð°ÑĨ": 6576,
      "eria": 6577,
      "ĠÑģÑĤÑĢÐµÐ¼": 6578,
      "Ġcreated": 6579,
      "ĠÐ¿Ð¾ÑģÐ¿ÐµÑĪ": 6580,
      "Ġhop": 6581,
      "ĠÐ³ÑĢÐµÑħ": 6582,
      "alle": 6583,
      "ÑģÐ»Ð¾Ð²": 6584,
      "Ġblock": 6585,
      "olly": 6586,
      "book": 6587,
      "Ġteach": 6588,
      "Ġfort": 6589,
      "ĠÑĥÑĪ": 6590,
      "Ġindividuals": 6591,
      "ĠÐ½Ð¾Ð¶": 6592,
      "ĠÐ¾Ñī": 6593,
      "Ġsearch": 6594,
      "Ð½ÑıÑĤÑĮ": 6595,
      "rated": 6596,
      "Ġbacter": 6597,
      "ĠÑĩÐ°ÑģÑĤÑĮ": 6598,
      "Ġbeyond": 6599,
      "ĠÑģÐºÐ²Ð¾Ð·ÑĮ": 6600,
      "ÑĭÐ½ÑĩÐµ": 6601,
      "Ġcook": 6602,
      "Ġquant": 6603,
      "yses": 6604,
      "ÐĲÐ½": 6605,
      "Ġcorpor": 6606,
      "Ġsuggested": 6607,
      "rate": 6608,
      "ĠÐ¿ÑĤ": 6609,
      "Ġcars": 6610,
      "Ð¾ÑĢÑĭ": 6611,
      "rif": 6612,
      "ĠÐ¿Ð¾Ð´Ð»": 6613,
      "Ġdaughter": 6614,
      "ĠÐºÑĢÐµÑģ": 6615,
      "Ġcarried": 6616,
      "ĠÐĴÐ°ÑĢÐ²Ð°ÑĢ": 6617,
      "ĠÐ²Ð¾ÑģÐºÐ»Ð¸Ðº": 6618,
      "Ð½ÐµÐ¼Ñĥ": 6619,
      "Ġfast": 6620,
      "chol": 6621,
      "ĠHIV": 6622,
      "Ġlibr": 6623,
      "outhern": 6624,
      "ords": 6625,
      "Ġcolor": 6626,
      "Ġsignal": 6627,
      "Ġpolitics": 6628,
      "ĠÐµÑħÐ°ÑĤÑĮ": 6629,
      "Ð°ÑĦ": 6630,
      "ÐµÐ·Ð´Ð°": 6631,
      "Ġactivation": 6632,
      "ĠÐ²Ð¾ÐºÑĢÑĥÐ³": 6633,
      "NT": 6634,
      "Ð¸ÑħÑģÑı": 6635,
      "comb": 6636,
      "Ġmostly": 6637,
      "Ġtelevision": 6638,
      "ĠÐ±Ð¾Ð¶Ðµ": 6639,
      "ĠÐ·Ð°Ð½ÑıÑĤ": 6640,
      "ĠÑģÐ¿Ð¾ÐºÐ¾Ð¹Ð½Ð¾": 6641,
      "Ġcreat": 6642,
      "ĠÐ¿ÑĢÐ¾Ð»": 6643,
      "Ð»ÐµÐ½Ð°": 6644,
      "ĠÐ»ÐµÐ³ÐºÐ¾": 6645,
      "riday": 6646,
      "ae": 6647,
      "ÑĩÑĤÐ¾": 6648,
      "ĠÐ¿Ð¾Ð¼ÐµÑī": 6649,
      "atterbox": 6650,
      "Ġbehavior": 6651,
      "ÐºÐ°Ð¼": 6652,
      "Ġrestr": 6653,
      "ĠÐ¿Ð¾Ð´Ð½Ð¸Ð¼": 6654,
      "Ð»ÐµÐ½Ð½ÑĭÐ¹": 6655,
      "ĠÐ·ÐµÐ¼Ð»Ð¸": 6656,
      "law": 6657,
      "ÑĭÑģÐº": 6658,
      "ĠÐ´Ð°ÑĤÑĮ": 6659,
      "Ġprobe": 6660,
      "ĠHer": 6661,
      "Ð»Ð°ÑĪ": 6662,
      "Ġprevent": 6663,
      "ĠÐ¼Ð¾Ð¸Ð¼": 6664,
      "ĠÑģÐ¾Ð¾Ð±Ñī": 6665,
      "Ġfunny": 6666,
      ".'": 6667,
      "ÐµÑģÑĤÐ²Ð°": 6668,
      "Ġfelt": 6669,
      "ulture": 6670,
      "mittee": 6671,
      "Ġyesterday": 6672,
      "amic": 6673,
      "Ġextreme": 6674,
      "Ġpractice": 6675,
      "Ġspeech": 6676,
      "Ġwood": 6677,
      "Ġcateg": 6678,
      "ĠÑĢÑĥÑĩ": 6679,
      "ĠÑĥÐ¼Ð°": 6680,
      "ĠÐ¿Ð¾ÐºÐ°Ð·Ð°Ð»Ð¾ÑģÑĮ": 6681,
      "ĠÐ²Ð¿ÐµÑĩÐ°ÑĤ": 6682,
      "ÐµÑģÐ¿": 6683,
      "ĠJer": 6684,
      "comple": 6685,
      "Ġwrite": 6686,
      "Ġrelatively": 6687,
      ".:": 6688,
      "Res": 6689,
      "high": 6690,
      "look": 6691,
      "Ġheav": 6692,
      "ĠÑĢÐµÑĪÐ¸ÑĤÐµÐ»ÑĮÐ½Ð¾": 6693,
      "Ġbasic": 6694,
      "significant": 6695,
      "och": 6696,
      "ĠÐ¸Ð±Ð¾": 6697,
      "ĠÑĢÐ¾Ð·": 6698,
      "ÐļÐ¾": 6699,
      "taining": 6700,
      "Ġpaying": 6701,
      "ĠÐ¿ÑĢÐµÑģÑĤÑĥÐ¿": 6702,
      "Ġsav": 6703,
      "ĠÐ¿ÑĥÑģÑĤÑĮ": 6704,
      "Ð¾ÑĢÐ¾Ð½": 6705,
      "Ð¡ÑĤÑĢ": 6706,
      "ĠÐ²Ð¾Ð·Ð²ÑĢÐ°Ñī": 6707,
      "lle": 6708,
      "num": 6709,
      "xic": 6710,
      "ĠÑģÐ¾Ð¿": 6711,
      "Ð²Ð°ÑĤÑĮ": 6712,
      "Ġthirty": 6713,
      "ffer": 6714,
      "ÐĲÑħ": 6715,
      "ĠÐ¿Ð¾Ð¼Ð¾Ñī": 6716,
      "ĠÐĹÐ°ÑĩÐµÐ¼": 6717,
      "ĠÂ±": 6718,
      "90": 6719,
      "AS": 6720,
      "ĠÑħÐ¾Ñħ": 6721,
      "position": 6722,
      "Ð°Ð²ÑĪÐµÐ³Ð¾": 6723,
      "Ð½Ð°Ð»": 6724,
      "ĠÐ¼ÐµÐ»ÑĮ": 6725,
      "ĠAug": 6726,
      "ĠÐĿÐ°ÐºÐ¾Ð½ÐµÑĨ": 6727,
      "Ġcontain": 6728,
      "Ġmale": 6729,
      "osh": 6730,
      "Ġrace": 6731,
      "ĠÐ²ÑģÑıÐºÐ¸Ð¹": 6732,
      "ĠÑĤÐ¾Ð»ÑģÑĤ": 6733,
      "eg": 6734,
      "Ġ&": 6735,
      "ÑĮÐ¸": 6736,
      "Ġstage": 6737,
      "ĠÑĥÐ±ÐµÐ¶Ð´": 6738,
      "ĠÑģÑĥÑīÐµÑģÑĤÐ²": 6739,
      "Ġnewspaper": 6740,
      "ÑĭÐ»Ð¸": 6741,
      "itness": 6742,
      "ĠÐĴÐ¿ÑĢÐ¾ÑĩÐµÐ¼": 6743,
      "ĠÐ¿Ð¾ÐºÐ°Ð·ÑĭÐ²": 6744,
      "cover": 6745,
      "ÑĢÐ¾": 6746,
      "ÑĩÐ¸ÑĤ": 6747,
      "Ġstyle": 6748,
      "Ġacqu": 6749,
      "Ġcorrect": 6750,
      "ĠÐ½ÐµÐ¾Ð±ÑĭÐºÐ½Ð¾Ð²": 6751,
      "IP": 6752,
      "ror": 6753,
      "vere": 6754,
      "ĠÐ±ÐµÐ·ÑĥÐ¼": 6755,
      "ĠÐ½Ð°ÑĪÐµÐ¹": 6756,
      "ĠÑĥÐ³Ð¾Ð»": 6757,
      "encing": 6758,
      "ĠÐ³ÑĢÐ¾Ð¼ÐºÐ¾": 6759,
      "Ġmagazine": 6760,
      "elligence": 6761,
      "Ġconclud": 6762,
      "associ": 6763,
      "Ġincludes": 6764,
      "ĠÐ½ÐµÐ±ÐµÑģ": 6765,
      "Ġexpensive": 6766,
      "Ġsleep": 6767,
      "ulations": 6768,
      "Ġchoice": 6769,
      "Ð¾Ð¹ÑĤÐ¸": 6770,
      "ĠOf": 6771,
      "ĠÐ·Ð¾Ð»Ð¾ÑĤ": 6772,
      "Ð´ÐµÐ¼": 6773,
      "ĠÐ¼Ð¸Ð³": 6774,
      "Ġnoted": 6775,
      "ĠNet": 6776,
      "ĠÑģÐ¾Ð±ÑģÑĤÐ²ÐµÐ½": 6777,
      "ÑĩÐ¸Ð²Ð¾": 6778,
      "ĠÐ½ÐµÑĩÐµÐ³Ð¾": 6779,
      "ifying": 6780,
      "ĠÐ¡Ð¼": 6781,
      "Ġdrink": 6782,
      "Ġhands": 6783,
      "Ġreduced": 6784,
      "ĠÑįÐº": 6785,
      "ĠÐ³Ð¾Ð²Ð¾ÑĢÑı": 6786,
      "ĠÐ·Ð½Ð°Ð»Ð°": 6787,
      "Ð½Ð°ÑĩÐµ": 6788,
      "Ġwat": 6789,
      "ĠGo": 6790,
      "Ġaccur": 6791,
      "ĠÐĵÐµÑģÐ¿ÐµÑĢ": 6792,
      "pril": 6793,
      "ĠÐ¿Ð¾Ð³Ð¸Ð±": 6794,
      "Ġrules": 6795,
      "ÐºÐ¾ÑĢ": 6796,
      "ĠÐ¿Ð¾Ð»Ñĥ": 6797,
      "ta": 6798,
      "ĠMichael": 6799,
      "ĠVir": 6800,
      "ĠÐ²Ð¼ÐµÑģÑĤÐ¾": 6801,
      "ĠÐºÑĥÑĩ": 6802,
      "ĠÐºÐ¾Ð¼Ñĥ": 6803,
      "ĠÐŁÑĢÐ°Ð²": 6804,
      "Ġuseful": 6805,
      "Ġtesting": 6806,
      "ĠÐļÐ¾ÑĢ": 6807,
      "ÐŀÐ±": 6808,
      "ĠÐ´ÑĢÑĥÐ³Ð¾Ð¼": 6809,
      "ĠÐ³ÑĢÐ¾Ð±": 6810,
      "Ġplayed": 6811,
      "Ġul": 6812,
      "ĠÐ²Ð½Ð¸Ð·": 6813,
      "ĠÑħÐ°ÑĢÐ°ÐºÑĤÐµÑĢ": 6814,
      "Ð½Ð°Ð¶Ð´Ñĭ": 6815,
      "ocal": 6816,
      "ĠÑģÐ»ÑĥÑĩÐ¸Ð»Ð¾ÑģÑĮ": 6817,
      "cellular": 6818,
      "Ġoppos": 6819,
      "ĠÑĢÑıÐ´Ð¾Ð¼": 6820,
      "pop": 6821,
      "Ġseason": 6822,
      "ĠÑĤÐ¾Ñĩ": 6823,
      "ducing": 6824,
      "ĠÐ¿Ð»Ð°ÑĤÑĮÐµ": 6825,
      "ĠÐ¸ÑģÑĩÐµÐ·": 6826,
      "care": 6827,
      "lor": 6828,
      "tre": 6829,
      "Ġbrief": 6830,
      "Ġfol": 6831,
      "ĠÐ³Ð¾Ð»Ð¾Ð²Ð°": 6832,
      "ĠChic": 6833,
      "ĠÑģÐ¾ÑģÐµÐ´": 6834,
      "Ð²ÐµÑĢÑħ": 6835,
      "Ġappropriate": 6836,
      "inated": 6837,
      "into": 6838,
      "Ġgiving": 6839,
      "Ð¸Ð½Ð¸": 6840,
      "ĠÐĺÐ²Ð°Ð½Ð¾Ð²Ð½Ð°": 6841,
      "ĠÐµÐ¶ÐµÐ»Ð¸": 6842,
      "ÑĢÑĭÑĤ": 6843,
      "ĠÐºÑĥÑħ": 6844,
      "ĠÐ¾Ð´Ð½Ð¸": 6845,
      "ĠÑĪÑĤ": 6846,
      "ĠÑĩÐµÐ»Ð¾Ð²ÐµÑĩÐµÑģÐº": 6847,
      "EM": 6848,
      "uated": 6849,
      "ĠÐ´Ð½ÐµÐ¹": 6850,
      "Ġeast": 6851,
      "aging": 6852,
      "ĠÐ»ÑİÐ´ÑıÐ¼": 6853,
      "Ð½Ð¾Ð²ÑĮ": 6854,
      "jected": 6855,
      "ugh": 6856,
      "type": 6857,
      "ĠÐ½Ð°Ð¿ÑĢÐ¾ÑĤÐ¸Ð²": 6858,
      "ĠÑģÐºÐ¾ÑĢÐµÐµ": 6859,
      "oice": 6860,
      "ĠÑĤÐµÑĢÐ¿": 6861,
      "Ð¾Ð»Ð¾Ñģ": 6862,
      "Ð¸ÑĤÐ²": 6863,
      "Ġcontains": 6864,
      "obal": 6865,
      "ĠÐ½Ð°ÑĪÐ¸Ñħ": 6866,
      "Ġstatus": 6867,
      "ĠÐ²ÑģÐµÐ¼Ñĥ": 6868,
      "rix": 6869,
      "Ġvac": 6870,
      "ÑĢÐµÐ´ÐµÐ»": 6871,
      "Ġmajority": 6872,
      "ĠÑģÑĢÐ°Ð¶": 6873,
      "omer": 6874,
      "Ġrepl": 6875,
      "Ġreasons": 6876,
      "ÐµÑĩÑĮ": 6877,
      "ĠÑĦÐ¾ÑĢ": 6878,
      "Ġinstance": 6879,
      "Ġinitial": 6880,
      "ocytes": 6881,
      "utions": 6882,
      "Ġ37": 6883,
      "Ġscen": 6884,
      "Ġdetected": 6885,
      "ha": 6886,
      "iver": 6887,
      "ĠÐ´ÑĢÑĥÐ³Ð¸Ð¼": 6888,
      "Ġversion": 6889,
      "Ġmoment": 6890,
      "ĠÐ¤Ð¸Ð»Ð¸Ð¿Ð¿": 6891,
      "onents": 6892,
      "ĠÑģÐ¶": 6893,
      "Ġcit": 6894,
      "ÐµÐ½Ð½Ð¾Ð¼": 6895,
      "omy": 6896,
      "olved": 6897,
      "ĠPaul": 6898,
      "ĠÐĹÐ½Ð°": 6899,
      "ĠÑģÑĤÑĢÐ¾Ð³Ð¾": 6900,
      "ĠÐ½Ð°Ð¿ÑĢÐ¸Ð¼ÐµÑĢ": 6901,
      "estic": 6902,
      "Ġdoor": 6903,
      "Ġtraditional": 6904,
      "ĠÐºÐ²Ð°ÑĢÑĤÐ¸ÑĢ": 6905,
      "mas": 6906,
      "...Â»": 6907,
      "ĠÐ²Ð¾Ð¾Ð±ÑĢÐ°Ð¶": 6908,
      "ĠÐŁÐ°Ð²ÐµÐ»": 6909,
      "Ġreflect": 6910,
      "ĠÐ²Ð¾Ð½": 6911,
      "ĠÑĤÑİ": 6912,
      "ĠÑĢÐ¾Ñģ": 6913,
      "ĠRA": 6914,
      "certain": 6915,
      "Ġseemed": 6916,
      "ucleotide": 6917,
      "iced": 6918,
      "Ġir": 6919,
      "Ġequal": 6920,
      "ĠÐĲÐ»ÐµÐºÑģÐµÐ¹": 6921,
      "hand": 6922,
      "ĠÑĤÐ¾Ð¿": 6923,
      "ÐµÐ»Ðµ": 6924,
      "ĠÑĢÐ¾ÑĤ": 6925,
      "resh": 6926,
      "Ġchromos": 6927,
      "text": 6928,
      "ĠÐ£Ð¶": 6929,
      "Ġpurch": 6930,
      "ĠSpanish": 6931,
      "ĠÐ¸ÑģÑĤÐ¸Ð½": 6932,
      "ĠÐĴÑĢÐ¾Ð½": 6933,
      "Ð¾ÑĩÐ¸Ð»": 6934,
      "lar": 6935,
      "eagan": 6936,
      "them": 6937,
      "Ġpolice": 6938,
      "Ġ1999": 6939,
      "levant": 6940,
      "Ġtheory": 6941,
      "ĠÐ²ÐµÐ½": 6942,
      "Ġbirth": 6943,
      "ÐµÑĢÐº": 6944,
      "ĠSy": 6945,
      "Ġran": 6946,
      "ĠÑħÐ»Ð¾Ð¿": 6947,
      "possible": 6948,
      "count": 6949,
      "hm": 6950,
      "nder": 6951,
      "Ġknowledge": 6952,
      "ĠPark": 6953,
      "ĠÐ°Ð»": 6954,
      "ĠÐ¡ÐµÐ¼ÐµÐ½": 6955,
      "ĠÐ¼ÑĥÐ¶Ð¸Ðº": 6956,
      "Ġidentify": 6957,
      "ĠÐ´Ð¾ÑĢÐ¾Ð³Ðµ": 6958,
      "den": 6959,
      "Ð»Ð¸Ð·": 6960,
      "ulin": 6961,
      "Ġplus": 6962,
      "ĠÑĤÑĢÐ¾Ð½": 6963,
      "Ġdisplay": 6964,
      "ĠÐ¾ÐºÐ°Ð·": 6965,
      "Ġremain": 6966,
      "Ġfindings": 6967,
      "Ġtests": 6968,
      "Ġcharge": 6969,
      "Ġslow": 6970,
      "Ġbasically": 6971,
      "EC": 6972,
      "Ð¾Ð»Ðº": 6973,
      "ĠTime": 6974,
      "ĠÐ¼Ð¾Ð³ÑĥÑĤ": 6975,
      "Ġsubs": 6976,
      "Ġavoid": 6977,
      "ĠÐ´Ð¾ÑĢÐ¾Ð³Ñĥ": 6978,
      "Ġbreast": 6979,
      "Ġclearly": 6980,
      "partic": 6981,
      "Ġsexual": 6982,
      "Ġnegative": 6983,
      "ÐµÐ»ÑģÑı": 6984,
      "imony": 6985,
      "Ġcapt": 6986,
      "Ġdetect": 6987,
      "ĠÑĢÐ°Ð·ÑĥÐ¼ÐµÐµÑĤÑģÑı": 6988,
      "Ġestablished": 6989,
      "Ġball": 6990,
      "Ð°Ð½Ð½Ð¾Ðµ": 6991,
      "Ġmeasured": 6992,
      "IT": 6993,
      "itz": 6994,
      "inger": 6995,
      "ÑĨÐ°ÑĢ": 6996,
      "ĠÐ»Ð°Ð´": 6997,
      "ĠMany": 6998,
      "ĠLondon": 6999,
      "Ġstarting": 7000,
      "ĠÐ½ÐµÐ±Ð¾": 7001,
      "ĠÐ¿ÑĢÐ¸ÐµÑħÐ°Ð»": 7002,
      "every": 7003,
      "ĠÑģÐµÐ´": 7004,
      "andal": 7005,
      "Ġ(\"": 7006,
      "Ġwhom": 7007,
      "ĠÐ¸Ð¼Ñı": 7008,
      "ĠHere": 7009,
      "Ġlaws": 7010,
      "ĠÐ¿Ð¾ÑģÐ¼Ð¾ÑĤÑĢÐµÐ»": 7011,
      "hat": 7012,
      "Ġmill": 7013,
      "iring": 7014,
      "Ġcompletely": 7015,
      "inner": 7016,
      "ĠÑģÑĬ": 7017,
      "Ġengine": 7018,
      "ĠÐºÐ°Ñĩ": 7019,
      "ression": 7020,
      "ĠÐ·Ð°ÐºÑĢÐ¸ÑĩÐ°Ð»": 7021,
      "Ġmarried": 7022,
      "Ġconservative": 7023,
      "Ġkilled": 7024,
      "Ġradio": 7025,
      "bac": 7026,
      "ĠÑģÑĥÑħ": 7027,
      "ĠÑģÐ½Ð°ÑĩÐ°Ð»Ð°": 7028,
      "ano": 7029,
      "ĠFrom": 7030,
      "Ġlooked": 7031,
      "lif": 7032,
      "ĠÑģÐ°Ð¿": 7033,
      "ancy": 7034,
      "ÐµÑĩÑĥ": 7035,
      "ĠÐ½Ð°ÑģÐ¼ÐµÑĪ": 7036,
      "ĠÐ¿Ð¾Ð³Ð»ÑıÐ´": 7037,
      "first": 7038,
      "ara": 7039,
      "Ð¸ÑĩÐµÐ³Ð¾": 7040,
      "Ð¾ÑĪÐ»Ð¾": 7041,
      "Ġdatab": 7042,
      "Ġtou": 7043,
      "ĠÐ¿ÑĢÐ¸Ð³Ð¾": 7044,
      "ĠPe": 7045,
      "Ð¸ÑĤÐ¾": 7046,
      "ĠÐ´Ð¾Ð¶Ð´": 7047,
      "Ġalternative": 7048,
      "ĠÐ´Ð²Ð°Ð´ÑĨÐ°ÑĤÑĮ": 7049,
      "Ġinfluence": 7050,
      "Ġhuh": 7051,
      "Ð¾Ð¼Ð¸Ð½": 7052,
      "phosph": 7053,
      "Ġthroughout": 7054,
      "Ġmagn": 7055,
      "Ġmeeting": 7056,
      "ĠÐ½ÐµÐ²Ð¾Ð»ÑĮÐ½Ð¾": 7057,
      "ĠÑģÐ¾Ð´": 7058,
      "ĠÐķÐ¼Ñĥ": 7059,
      "ĠDemocrats": 7060,
      "Ġtumor": 7061,
      "Ġmaterial": 7062,
      "fold": 7063,
      "iny": 7064,
      "ĠÑĥÑģÐ¸Ð»": 7065,
      "ĠÐ¿ÑĢÐ¾Ð¸Ð·Ð½ÐµÑģ": 7066,
      "life": 7067,
      "Ġbound": 7068,
      "Ð°Ð¼Ð¿": 7069,
      "Ð¸Ð·Ð¼": 7070,
      "ĠÐ¡Ð¿": 7071,
      "ĠÐºÑĢÑĭÐ»ÑĮ": 7072,
      "ĠÑĤÐµÐ¼Ð½Ð¾": 7073,
      "Ġlargest": 7074,
      "ĠÐ½ÐµÐ¾Ð±ÑħÐ¾Ð´Ð¸Ð¼": 7075,
      "orney": 7076,
      "Ġstim": 7077,
      "ĠÑĩÐµÐ»Ð¾Ð²ÐµÐºÑĥ": 7078,
      "ĠÐ·Ð°ÑģÐ¼Ðµ": 7079,
      "ĠÑĥÑĤÐµÑĪ": 7080,
      "ĠÐ²Ð¾ÑģÐ¿Ð¾Ð¼Ð¸Ð½Ð°": 7081,
      "99": 7082,
      "hist": 7083,
      "iers": 7084,
      "Ġbeach": 7085,
      "ested": 7086,
      "Ġrich": 7087,
      "ĠPol": 7088,
      "Ġinterested": 7089,
      "Ġplaying": 7090,
      "Ġelection": 7091,
      "ĠÐ´Ð°Ð»ÐµÐºÐ¾": 7092,
      "house": 7093,
      "ÐµÐ¿ÐµÑĤ": 7094,
      "ĠÑĦÐ¸Ð³": 7095,
      "ĠÑĥÑģÐ¿ÐµÐ»": 7096,
      "omas": 7097,
      "chang": 7098,
      "Ġexpos": 7099,
      "ners": 7100,
      "oul": 7101,
      "Ð¾Ð»ÐµÐ½": 7102,
      "abs": 7103,
      "ĠRobert": 7104,
      "ĠÐ½Ð¸ÐºÐ¾Ð³Ð¾": 7105,
      "ÐłÐ°Ð·": 7106,
      "36": 7107,
      "iant": 7108,
      "Ġbra": 7109,
      "Ġfear": 7110,
      "Ġdro": 7111,
      "ĠÐ±ÑĭÑģÑĤÑĢ": 7112,
      "ÑĢÐ°ÑģÑĤ": 7113,
      "ÐµÑĨÐºÐ¸Ð¹": 7114,
      "ĠÐ¿Ð¾ÑĢÐ°Ð·": 7115,
      "Ġproduce": 7116,
      "ĠRussian": 7117,
      "Ġbox": 7118,
      "Ġmax": 7119,
      "Ġkid": 7120,
      "oses": 7121,
      "ĠÑĤÑĢÐµÑĤÑĮ": 7122,
      "Ġperfect": 7123,
      "cellent": 7124,
      "Ġcandidate": 7125,
      "Ġ35": 7126,
      "Ġserve": 7127,
      "ĠÑĥÐ²Ð¸Ð´ÐµÐ»": 7128,
      "ĠÐŁÐ°Ð²Ð»Ð¾Ð²Ð¸Ñĩ": 7129,
      "Ġchallen": 7130,
      "Ġdegree": 7131,
      "ĠÐ½ÐµÐ³Ð¾Ð´": 7132,
      "ĠÐ½Ð°ÑĪÐµ": 7133,
      "Ð¾Ð·Ð²": 7134,
      "Ð¾ÑĪÐ»Ð¸": 7135,
      "Ġratio": 7136,
      "Ġlawyers": 7137,
      "ĠÐ²Ð¿Ð¾Ð»Ð½Ðµ": 7138,
      "Ġ{": 7139,
      "asure": 7140,
      "Ġreaction": 7141,
      "Ġknows": 7142,
      "aste": 7143,
      "ÑĥÑĢÐ¾Ð²": 7144,
      "Ġkinds": 7145,
      "ĠÐ·Ð»Ð¾Ð´": 7146,
      "Ġpicture": 7147,
      "Ð°Ð´ÑĮ": 7148,
      "ĠÐĴÐ¸Ð´": 7149,
      "ĠÑĤÐ°ÐºÐ¶Ðµ": 7150,
      "ÐµÑĩÐ°": 7151,
      "exam": 7152,
      "Ġspin": 7153,
      "Ġparts": 7154,
      "ĠÐ¾ÐºÐ¾Ð½Ñĩ": 7155,
      "ĠÐ¼Ð¾Ð»ÑĩÐ°Ð»": 7156,
      "ĠÐ¿ÑĢÐ¸ÑģÑĥÑĤ": 7157,
      "including": 7158,
      "Ġapparently": 7159,
      "ĠÐ²Ð¸Ð½": 7160,
      "Ġang": 7161,
      "ĠÑģÐ²ÐµÐ¶": 7162,
      "pper": 7163,
      "ÐĴÐ¾": 7164,
      "ĠÐ´ÑĢÑĥÐ³ÑĥÑİ": 7165,
      "ĠÐ½Ð°Ð·Ð½Ð°Ñĩ": 7166,
      "ĠÐ±ÑĭÐ²Ð°Ð»Ð¾": 7167,
      "control": 7168,
      "ĠÑĢÐµÑĩÑĮ": 7169,
      "Ġselection": 7170,
      "ĠÑĪÐ¸ÑĢÐ¾Ðº": 7171,
      "IO": 7172,
      "uary": 7173,
      "ÑĥÑĢÐ°": 7174,
      "isher": 7175,
      "ĠÐ·Ð°ÑģÑĤ": 7176,
      "ĠÐ´Ð¸Ðº": 7177,
      "stead": 7178,
      "ÑĨÐ¾Ð¼": 7179,
      "ims": 7180,
      "ĠÑĤÐ²Ð¾Ñı": 7181,
      "Ð»ÑıÐ»ÑģÑı": 7182,
      "Ġclean": 7183,
      "Ġspect": 7184,
      "Ð¼ÐµÑħ": 7185,
      "ĠÑħÑĢÐ¸ÑģÑĤÐ¸Ð°Ð½": 7186,
      "Ġcontact": 7187,
      "Ġgrant": 7188,
      "genes": 7189,
      "Ġtrees": 7190,
      "Ġpresidential": 7191,
      "Ġlimit": 7192,
      "ĠLadin": 7193,
      "uing": 7194,
      "Ð¸Ð½Ð¾": 7195,
      "ĠÐ²Ð½Ð¾Ð²ÑĮ": 7196,
      "ĠÑħÑĥÐ¶Ðµ": 7197,
      "ĠÐ¸Ð·ÑĥÐ¼": 7198,
      "ĠÐļÐ¸ÑĢ": 7199,
      "Ġfeatures": 7200,
      "protein": 7201,
      "Ð½Ð°Ð²": 7202,
      "Ġwest": 7203,
      "ĠMr": 7204,
      "Ð¾ÑĩÐºÑĥ": 7205,
      "ĠÐ²Ð¸Ð´Ð¸Ð¼Ð¾": 7206,
      "Ġoverall": 7207,
      "Ġ1995": 7208,
      "Ġtested": 7209,
      "Ġopin": 7210,
      "ĠRussia": 7211,
      "ww": 7212,
      "ĠÐ¸Ð½Ð°ÑĩÐµ": 7213,
      "Ġmort": 7214,
      "ĠÑĤÐ¸ÑĪ": 7215,
      "phas": 7216,
      "Ġbeginning": 7217,
      "Ind": 7218,
      "Ð¾ÑĢÐ¾Ð¼": 7219,
      "Ð»ÑıÑı": 7220,
      "Ġevolution": 7221,
      "ĠÐ¼Ð¸Ð»ÑĭÐ¹": 7222,
      "ÑıÑı": 7223,
      "Ġdig": 7224,
      "Ġbye": 7225,
      "ĠÑģÐ°Ð¼ÑĭÐ¼": 7226,
      "ĠÐ±ÑĥÐ´ÐµÑĪÑĮ": 7227,
      "Ġenzy": 7228,
      "ÑģÐ»ÑĥÑĪ": 7229,
      "ĠÑĩÐ°ÑģÐ°": 7230,
      "Ġstandards": 7231,
      "ĠÑģÐ¾Ð»Ð½ÑĨÐµ": 7232,
      "organ": 7233,
      "Ð¾Ð²Ð¾ÑĢÐ¸ÑĤÑĮ": 7234,
      "Ð¸ÑĨÐµÐ¹": 7235,
      "Ġtrouble": 7236,
      "ĠÐ¼Ð¾Ð³Ð»Ð¾": 7237,
      "ĠÑĥÐ·Ð½Ð°ÑĤÑĮ": 7238,
      "ĠÐ¼ÐµÐ´Ð»ÐµÐ½Ð½Ð¾": 7239,
      "ĠÐ¿ÑĢÐµÐ»": 7240,
      "Ġweather": 7241,
      "pressed": 7242,
      "ĠÐ¿Ð¾ÑģÐ»ÐµÐ´Ð½Ð¸Ð¹": 7243,
      "Ġdebate": 7244,
      "ĠÐ´Ð°Ð»ÑĮÑĪÐµ": 7245,
      "ĠÐ½ÐµÐ¿Ð¾Ð´Ð²Ð¸Ð¶": 7246,
      "SS": 7247,
      "Ð¸Ð²Ð°Ð»ÑģÑı": 7248,
      "ĠSm": 7249,
      "ĠKosov": 7250,
      "ĠÐ¸Ð¼ÐµÑİ": 7251,
      "compl": 7252,
      "Ġestimated": 7253,
      "ĠÃĹ": 7254,
      "inet": 7255,
      "Ġoil": 7256,
      "Ġcold": 7257,
      "Ð¾Ð²Ð°Ð½Ð¸Ñı": 7258,
      "Ġalcohol": 7259,
      "Ġfinding": 7260,
      "Ġcorrel": 7261,
      "Ġplanning": 7262,
      "ĠÑĥÑģÐ»ÑĭÑĪ": 7263,
      "ĠÐ²ÑĭÑĪÐ»Ð°": 7264,
      "ÐµÐ´Ñĥ": 7265,
      "ĠÑģÑĤÐ°Ð²": 7266,
      "Ġrid": 7267,
      "Ġtruth": 7268,
      "cribed": 7269,
      "Ġremark": 7270,
      "Ġbenefit": 7271,
      "dem": 7272,
      "Ġmix": 7273,
      "olid": 7274,
      "ĠÐľÐ¾ÑģÐºÐ²Ðµ": 7275,
      "Ġseparate": 7276,
      "pres": 7277,
      "ĠNow": 7278,
      "Ġchief": 7279,
      "force": 7280,
      "ffice": 7281,
      "ĠÐ³Ð¾Ð»Ð¾Ð²Ñĭ": 7282,
      "ĠÑĥÐ±Ð¸Ð¹": 7283,
      "ĠÐ´ÐµÑĤÐ¸": 7284,
      "ĠÑĥÐ»Ð¸ÑĨÐµ": 7285,
      "98": 7286,
      "Ð»ÑĭÐ¹": 7287,
      "does": 7288,
      "ĠJapanese": 7289,
      "Ġtherapy": 7290,
      "ority": 7291,
      "ĠÐ²Ð¾Ð¾Ð±ÑīÐµ": 7292,
      "flu": 7293,
      "ĠÑĥÑģÐ¿Ð¾ÐºÐ¾": 7294,
      "ĠÐłÐ°Ð·Ð²Ðµ": 7295,
      "Ġselected": 7296,
      "Ġsun": 7297,
      "stream": 7298,
      "ĠInt": 7299,
      "Ġcritical": 7300,
      "ĠÐ±ÑĭÐ²Ð°ÐµÑĤ": 7301,
      "ida": 7302,
      "ĠAc": 7303,
      "ĠÐ´ÑĥÐ¼Ð°Ð»Ð°": 7304,
      "ÐµÑģÑĤÑĮÑıÐ½": 7305,
      "likely": 7306,
      "aus": 7307,
      "Ġahead": 7308,
      "venue": 7309,
      "Ġexplain": 7310,
      "Ġcritics": 7311,
      "%)": 7312,
      "ĠÐ´Ð¾Ð½": 7313,
      "ĠIm": 7314,
      "ĠSince": 7315,
      "ĠÐ²ÑĭÑĢÐ°Ð·": 7316,
      "ĠÐ¿Ð¾Ð»ÐºÐ¾Ð²": 7317,
      "Ġresources": 7318,
      "Ð¡Ð»": 7319,
      "ĠÐ²ÑģÑĤÐ°Ð²": 7320,
      "ĠRo": 7321,
      "Ġdefense": 7322,
      "ĠÑĤÐ²Ð¾ÐµÐ¹": 7323,
      "Ð¡ÑĤÐ°ÑĢ": 7324,
      "05": 7325,
      "PR": 7326,
      "cks": 7327,
      "ÑıÐ±": 7328,
      "Ġdaily": 7329,
      "oming": 7330,
      "lling": 7331,
      "ĠÑĥÑģÑĤÑĢ": 7332,
      "Ġvide": 7333,
      "ĠÑĪÐ°Ð¿": 7334,
      "Ġadvert": 7335,
      "ĠOct": 7336,
      "Ġspread": 7337,
      "Ġraised": 7338,
      "ergy": 7339,
      "Ġbeg": 7340,
      "wor": 7341,
      "ĠÑģÐ°Ð¼ÑĭÐµ": 7342,
      "Ġtranscription": 7343,
      "Ġresponsible": 7344,
      "ĠÑĩÐµÑĤÑĭÑĢÐµ": 7345,
      "owd": 7346,
      "ĠÐ»Ð°Ðº": 7347,
      "ĠDis": 7348,
      "ĠOur": 7349,
      "ĠÐĵÐ´Ðµ": 7350,
      "Ġready": 7351,
      "Ġdraw": 7352,
      "ĠGeneral": 7353,
      "AL": 7354,
      "Ð°Ð½Ð¸Ð½": 7355,
      "ĠÐŁÐ¾Ñĩ": 7356,
      "ĠÑĤÑĢÑĥÐ±": 7357,
      "ĠÐĲÐ»ÐµÐºÑģÐµ": 7358,
      "ĠÑĤÑĢÑĥÐ´Ð½Ð¾": 7359,
      "ÑģÑĤÐ¾ÑıÑĤÐµÐ»ÑĮ": 7360,
      "34": 7361,
      "gar": 7362,
      "ĠTI": 7363,
      "ĠÐ¿Ð¾Ð´Ð¾Ð·ÑĢ": 7364,
      "Ð½Ð¸ÐºÑĥ": 7365,
      "ÑĢÐ°ÑģÐ½Ð¾": 7366,
      "Ġpatterns": 7367,
      "good": 7368,
      "itable": 7369,
      "ĠÐ¾Ð²": 7370,
      "ĠÐ²ÑĭÑĪÐµ": 7371,
      "They": 7372,
      "ĠÑģÐ¿Ð¾ÑĢ": 7373,
      "ĠÐ±ÑĥÐ´ÑĥÑī": 7374,
      "ĠÐ¾ÑģÐ½Ð¾Ð²": 7375,
      "ĠÐ¶ÐµÐ½ÑīÐ¸Ð½": 7376,
      "Ġvariety": 7377,
      "GC": 7378,
      "dro": 7379,
      "ĠÑĤÑĥÐ¼": 7380,
      "ÐµÑĢÐµÐ·": 7381,
      "ĠÑģÑĤÐ¾Ð»ÑĮ": 7382,
      "sequence": 7383,
      "Ġrapid": 7384,
      "could": 7385,
      "ĠÐ´Ð°ÑĢ": 7386,
      "child": 7387,
      "ĠÑģÐ°Ð¼Ð¾": 7388,
      "Ġinstit": 7389,
      "ĠÐ¿Ð¾Ð»Ð¾Ð¶ÐµÐ½Ð¸Ðµ": 7390,
      "mes": 7391,
      "Ġgar": 7392,
      "ĠAccording": 7393,
      "Ġsoftware": 7394,
      "Ġancient": 7395,
      "cis": 7396,
      "Ġtable": 7397,
      "quest": 7398,
      "anta": 7399,
      "ĠLSC": 7400,
      "ĠÐ²Ð·Ð´ÑĢ": 7401,
      "ÑĥÐ½Ð´": 7402,
      "ĠÐĴÐ°ÑģÐ¸Ð»ÑĮ": 7403,
      "ĠÐ²Ð½ÑĥÑĤÑĢ": 7404,
      "ham": 7405,
      "Ġmine": 7406,
      "ication": 7407,
      "ĠMil": 7408,
      "Ġgenetic": 7409,
      "Ġcontrols": 7410,
      "ĠÐ³ÑĥÐ±Ñĭ": 7411,
      "sequences": 7412,
      "Ã§": 7413,
      "Ġpros": 7414,
      "ĠFD": 7415,
      "ĠÐºÐ¾Ð»Ð¸": 7416,
      "Ġmedium": 7417,
      "ĠReg": 7418,
      "Ð¼ÐµÑģÑĤÐ¾": 7419,
      "ĠÐ±Ð¾Ðº": 7420,
      "Ġgreen": 7421,
      "Ð¾ÑĤÑĢÐµÐ±": 7422,
      "Ġapproximately": 7423,
      "ĠÐ¿ÐµÑĩÐ°Ð»ÑĮ": 7424,
      "Be": 7425,
      "erate": 7426,
      "Ġnone": 7427,
      "osen": 7428,
      "Ġmember": 7429,
      "ĠÐ½ÑĭÐ½Ðµ": 7430,
      "ĠÑĥÐºÑĢ": 7431,
      "ĠÑĥÑģÑĤÑĢÐ¾": 7432,
      "ĠBoth": 7433,
      "ĠÐºÑĢÑĥÐ¶": 7434,
      "ĠÐ³Ð¾ÑĢÐ¾Ð´Ð°": 7435,
      "ĠÐ²Ð¾Ð·ÑĮ": 7436,
      "ĠÑĢÐ°Ð´Ð¾ÑģÑĤÐ¸": 7437,
      "Ġforms": 7438,
      "ĠÐºÑĢÐµÐ¿ÐºÐ¾": 7439,
      "Ġencoura": 7440,
      "rolled": 7441,
      "Ġmist": 7442,
      "racy": 7443,
      "ictionary": 7444,
      "Ġautom": 7445,
      "family": 7446,
      "Ġtext": 7447,
      "struct": 7448,
      "eling": 7449,
      "otyp": 7450,
      "ĠFBI": 7451,
      "apt": 7452,
      "ĠÑģÐ¼ÑĭÑģÐ»": 7453,
      "Ġcontent": 7454,
      "ĠÐ²Ð¸Ð´Ð¾Ð¼": 7455,
      "ĠÐĲÐ½ÑĤÐ¾Ð½": 7456,
      "Ġimagine": 7457,
      "somet": 7458,
      "Ġrent": 7459,
      "ĠÑģÐ¿Ð°ÑĤÑĮ": 7460,
      "ĠÐ»ÑİÐ´ÑĮÐ¼Ð¸": 7461,
      "Ġdefined": 7462,
      "ĠÐ¾ÑĤÐ²ÐµÑĩÐ°Ð»Ð°": 7463,
      "Ġincub": 7464,
      "ĠÑģÐµÐ¼ÐµÐ¹": 7465,
      "Ġconsistent": 7466,
      "ĠServices": 7467,
      "ĠÐ´Ð¾Ð³Ð°Ð´": 7468,
      "ÑħÑĢÐ°Ð½": 7469,
      "ĠLou": 7470,
      "ĠÐľÐ°ÑĢÑĮ": 7471,
      "Ġactive": 7472,
      "ĠÐ²ÐµÑĢÐ¾ÑıÑĤÐ½Ð¾": 7473,
      "Ġstudent": 7474,
      "Ð£Ð¶": 7475,
      "Ġsmaller": 7476,
      "ĠÐ¸Ð³ÑĢÐ°": 7477,
      "ÑĥÐ»Ñı": 7478,
      "Ġwish": 7479,
      "ĠÐ±Ð¾Ð¹": 7480,
      "oma": 7481,
      "ÐµÐ»ÐµÐ¹": 7482,
      "ĠJames": 7483,
      "Ġjobs": 7484,
      "ĠÐºÑĢÑĥÐ³Ð¾Ð¼": 7485,
      "ĠÐ¿Ð¾Ð´Ð»Ðµ": 7486,
      "again": 7487,
      "Ġdomains": 7488,
      "Ð¸ÑĤÐµÐ»ÐµÐ¹": 7489,
      "ĠMonday": 7490,
      "Ġtur": 7491,
      "ÐºÐ¸Ð¼Ð¸": 7492,
      "Ġgas": 7493,
      "ĠCourt": 7494,
      "ÑĥÐ¼Ñı": 7495,
      "obby": 7496,
      "ĠÐĽÐ¸Ð·Ð°": 7497,
      "Ġdefinitely": 7498,
      "ĠÐ²ÑħÐ¾Ð´": 7499,
      "ĠÐ´ÑĭÐ¼": 7500,
      "ĠÐ²ÑĭÑĢ": 7501,
      "Ð¿ÐµÑĢÐ²": 7502,
      "Ġorganization": 7503,
      "Ġpaint": 7504,
      "ĠGerman": 7505,
      "di": 7506,
      "Ð»ÐµÐ½Ð¸Ð¸": 7507,
      "Ð¾ÐºÑĢ": 7508,
      "Ġdistinct": 7509,
      "ĠÐ¾ÑĤÑĩÐµÐ³Ð¾": 7510,
      "ĠÑĥÐºÐ°Ð·": 7511,
      "Ġarchitect": 7512,
      "comes": 7513,
      "Ġsets": 7514,
      "Ġfocus": 7515,
      "Ġgold": 7516,
      "ĠÐ²ÑĭÐº": 7517,
      "oking": 7518,
      "Ġplans": 7519,
      "Ð¸ÑĤÐµÐ»ÑĮÐ½ÑĭÐ¹": 7520,
      "program": 7521,
      "ĠÑĥÑģÐ»Ð¾Ð²": 7522,
      "ĠÐ½ÑĭÐ½ÑĩÐµ": 7523,
      "ula": 7524,
      "ellect": 7525,
      "Ð¡Ð¿": 7526,
      "ĠÑģÑĤÐ°ÑĢÑĭÐ¹": 7527,
      "Ġreporting": 7528,
      "Ġdirector": 7529,
      "Ð²ÐµÑĢÐ¶": 7530,
      "Ġnurs": 7531,
      "anti": 7532,
      "Ġprint": 7533,
      "ĠÐ¿Ð»Ð¾Ñħ": 7534,
      "ĠÐķÐ²Ð³": 7535,
      "Ġelements": 7536,
      "ĠÐ¸ÑģÐºÑĥÑģ": 7537,
      "ĠÐ±Ð°Ð±ÑĥÑĪÐºÐ°": 7538,
      "ĠÐ²ÑĭÑĢÐ°Ð¶ÐµÐ½Ð¸Ðµ": 7539,
      "ser": 7540,
      "Ð»ÐµÐ¶": 7541,
      "oned": 7542,
      "ĠTur": 7543,
      "Ð¾Ð½Ð¾Ð²": 7544,
      "ĠJuly": 7545,
      "ĠÐ»ÑİÐ±Ð¸Ð¼": 7546,
      "Ġ80": 7547,
      "ĠÑĥÑĤÑĢÐ°": 7548,
      "ĠÑĨÐµÑĢÐºÐ²": 7549,
      "ĠÐ¿ÑĢÐ¸Ð³Ð¾ÑĤÐ¾Ð²": 7550,
      "Pro": 7551,
      "alse": 7552,
      "ĠÐ¼ÐµÐ½ÑĮ": 7553,
      "ÐµÑĢÑĥ": 7554,
      "Ð¸ÑĪÑĮÑģÑı": 7555,
      "Ġviews": 7556,
      "ĠÐ²ÐµÑĩÐµÑĢÐ¾Ð¼": 7557,
      "isons": 7558,
      "Ġdang": 7559,
      "ĠArab": 7560,
      "Ġpropos": 7561,
      "ĠÐ¼ÑĥÐ¶Ð°": 7562,
      "Ð½ÐµÐ»": 7563,
      "ÐµÑĤÑĥ": 7564,
      "ander": 7565,
      "ĠÑģÐ»Ð¾Ð¶": 7566,
      "Ġ31": 7567,
      "Ġfloor": 7568,
      "plicated": 7569,
      "ĠÑĥÑĤÑĢÐ¾Ð¼": 7570,
      "ĠÐ²ÑģÑĤÑĥÐ¿": 7571,
      "ĠCO": 7572,
      "rible": 7573,
      "ĠMedic": 7574,
      "ĠReagan": 7575,
      "Ġunit": 7576,
      "Ġoffers": 7577,
      "ĠÐ±ÑĢÐ°ÑĤÐ°": 7578,
      "Ġfunding": 7579,
      "last": 7580,
      "Ð¾Ð²Ð°Ð»ÑģÑı": 7581,
      "Ð¾Ð²Ð°ÑĤÑĮÑģÑı": 7582,
      "ĠÑĤÑı": 7583,
      "Ġweak": 7584,
      "ĠÑĤÐ°ÐºÐ¾Ð¼": 7585,
      "ÐµÐ½ÑĮÐºÐ¾Ð¹": 7586,
      "ĠJack": 7587,
      "Ġsym": 7588,
      "bye": 7589,
      "Ġlearned": 7590,
      "function": 7591,
      "Ð¾ÑĩÐºÐ¸": 7592,
      "atically": 7593,
      "Ġenh": 7594,
      "ĠÐ§Ð¸Ñĩ": 7595,
      "Ġparam": 7596,
      "Ġfunds": 7597,
      "ĠÐ³Ð¾ÑĢÐ¾Ð´Ðµ": 7598,
      "orters": 7599,
      "ÐµÑĢÑĭÐ²": 7600,
      "uty": 7601,
      "Ð¾ÑĢÐ¾ÑĤ": 7602,
      "ĠÐ°Ðº": 7603,
      "ĠÑĥÑħÐ¾Ð´": 7604,
      "ĠÐ¾Ð±ÑģÑĤÐ¾ÑıÑĤÐµÐ»ÑĮ": 7605,
      "aret": 7606,
      "Ġarr": 7607,
      "Ġunique": 7608,
      "ĠÐ³ÑĢÐ°Ð½": 7609,
      "37": 7610,
      "Ð¾Ð»Ñİ": 7611,
      "Ġvirt": 7612,
      "Ġcomparison": 7613,
      "Ġdocument": 7614,
      "ÐµÑģÑĤÐ²ÐµÐ½": 7615,
      "Ð¸Ð»Ð¾Ñģ": 7616,
      "those": 7617,
      "ignment": 7618,
      "ĠÐºÐ½ÑıÐ³": 7619,
      "Ġfemale": 7620,
      "ED": 7621,
      "cop": 7622,
      "ĠÐ¿Ð¾Ð»ÑİÐ±": 7623,
      "Ð½Ð¸ÐµÐ¼": 7624,
      "Ġmanagement": 7625,
      "Ġreligious": 7626,
      "\"--": 7627,
      "45": 7628,
      "Ġsports": 7629,
      "Ġfold": 7630,
      "ĠÐ½Ð°ÑģÑĤ": 7631,
      "ĠÑĢÐ°Ð·Ð°": 7632,
      "ĠÐ¿ÐµÑĢÐµÐ¿": 7633,
      "ÐĵÐ´Ðµ": 7634,
      "ĠÐ¾Ð±ÑĢÐ°ÑĤÐ¸Ð»ÑģÑı": 7635,
      "ĠCons": 7636,
      "ĠMus": 7637,
      "Ġadjust": 7638,
      "reatment": 7639,
      "Ð»ÐµÐ½Ñĭ": 7640,
      "ĠÑīÐµÐº": 7641,
      "Ġer": 7642,
      "ĠÐĿÐ¸ÑĩÐµÐ³Ð¾": 7643,
      "ĠÑģÐºÑĢÑĭÐ²": 7644,
      "Ġshoot": 7645,
      "Ġprices": 7646,
      "ĠÐ´ÑĢÑĥÐ·": 7647,
      "Ġsubjects": 7648,
      "Ġscreening": 7649,
      "Ġestablish": 7650,
      "Ġdate": 7651,
      "ÑĦÑĢ": 7652,
      "ĠÑĢÐµÑĩÐ¸": 7653,
      "cing": 7654,
      "Ð½Ð°Ð´ÑĨÐ°ÑĤÑĮ": 7655,
      "ĠDes": 7656,
      "ĠÐ¼Ð¾ÐµÐ¼": 7657,
      "Ð¾ÑİÑģÑĮ": 7658,
      "ĠÐ¿Ð¾Ð½ÑıÑĤ": 7659,
      "ĠMcCain": 7660,
      "TR": 7661,
      "west": 7662,
      "ĠÐ¿Ð¸ÑĪ": 7663,
      "ĠÐ¼ÑıÐ³": 7664,
      "ĠNe": 7665,
      "ĠÐºÐ¾ÑĤÐ¾ÑĢÐ¾Ð¼Ñĥ": 7666,
      "ÐĿÐ°Ð´": 7667,
      "Ġtwice": 7668,
      "ĠAlso": 7669,
      "Ġtemper": 7670,
      "From": 7671,
      "otype": 7672,
      "ÐµÐ²Ð°ÑĤÑĮ": 7673,
      "ĠÐ³Ð¾Ð²Ð¾ÑĢÐ¸ÑĤÐµ": 7674,
      "Ġspir": 7675,
      "ÑıÐ½Ð¸Ðµ": 7676,
      "flict": 7677,
      "ĠÑģÐµÑĢÐµÐ±": 7678,
      "No": 7679,
      "Ġtal": 7680,
      "ero": 7681,
      "rog": 7682,
      "ĠÐµÐ·Ð´": 7683,
      "Ġstore": 7684,
      "ĠApril": 7685,
      "appe": 7686,
      "Ġprison": 7687,
      "ĠÐ²Ð·ÑıÑĤÑĮ": 7688,
      "ĠÐ¾ÐºÐ½Ð¾": 7689,
      "should": 7690,
      "ĠÐ½Ð°ÑĢÐ¾Ð´Ð°": 7691,
      "ca": 7692,
      "Ð¸ÑĨÐµ": 7693,
      "ĠÐ½ÐµÐ´Ð¾ÑģÑĤ": 7694,
      "patients": 7695,
      "ĠAir": 7696,
      "ĠMary": 7697,
      "istics": 7698,
      "ĠNO": 7699,
      "ĠÐ±ÑĥÐ´ÐµÐ¼": 7700,
      "Ġtrend": 7701,
      "Ġpredicted": 7702,
      "ĠÐľÐ¾Ð¶ÐµÑĤ": 7703,
      "Ð¾Ð»ÑİÐ±": 7704,
      "ests": 7705,
      "ĠÐ¿Ð¾Ð´Ð°Ð²": 7706,
      "ĠÑģÐ°Ð¼ÑĭÑħ": 7707,
      "Ġ1997": 7708,
      "eachment": 7709,
      "Ġlisten": 7710,
      "ĠÐłÐ¾ÑģÑģÐ¸Ð¸": 7711,
      "ĠÐ²Ð»Ð°Ð´": 7712,
      "ĠÑĥÑĪÐµÐ»": 7713,
      "Ġconcept": 7714,
      "ĠÐ¿Ð¾ÑıÐ²": 7715,
      "ĠFederal": 7716,
      "ĠÐŀÑĩ": 7717,
      "ĠGree": 7718,
      "ĠÑģÐ¼ÑĥÑĤ": 7719,
      "Ð¸ÑĤÐµÐ»ÑĮÑģÑĤÐ²Ð¾": 7720,
      "ĠÑĨÐ°ÑĢÑĮ": 7721,
      "Ġgotten": 7722,
      "Ġ68": 7723,
      "ĠÑģÑĤÐ¾Ð»Ð°": 7724,
      "polit": 7725,
      "Ġpsych": 7726,
      "Ð¾Ð½Ñĭ": 7727,
      "Ġje": 7728,
      "ĠÐ¿ÑĢÐ¸Ð²ÑĭÑĩ": 7729,
      "Ġglass": 7730,
      "ĠÐ²ÑģÑıÐºÐ¾Ð³Ð¾": 7731,
      "interest": 7732,
      "ÑĪÐµÐ¼Ñĥ": 7733,
      "ĠÑĤÐ°ÐºÑĥÑİ": 7734,
      "ĠNAT": 7735,
      "ĠIts": 7736,
      "Ġcolon": 7737,
      "ĠÑħÐ¾Ð·ÑıÐ¸Ð½": 7738,
      "ĠDemocratic": 7739,
      "ÑĩÑĥÐ²ÑģÑĤÐ²": 7740,
      "road": 7741,
      "ĠTe": 7742,
      "ĠCA": 7743,
      "ishment": 7744,
      "ĠÑĩÐµÐ»Ð¾Ð²ÐµÐºÐ¾Ð¼": 7745,
      "ĠSecurity": 7746,
      "ĠÐ·Ð°Ð¶": 7747,
      "raw": 7748,
      "ĠGl": 7749,
      "Ġclones": 7750,
      "Ġunits": 7751,
      "Ġhypothes": 7752,
      "Ġcounter": 7753,
      "Ġlatest": 7754,
      "ĠÑĢÐ¾Ð²": 7755,
      "conf": 7756,
      "Ġcollect": 7757,
      "Ġpossibility": 7758,
      "Ġfashion": 7759,
      "ÑĤÐ¾Ð¸Ð½": 7760,
      "ented": 7761,
      "Ġnor": 7762,
      "ĠJud": 7763,
      "expl": 7764,
      "Ġwilling": 7765,
      "ĠÐĵÑĢÐ¸Ð³Ð¾": 7766,
      "ĠÐ±Ð°ÑĤÑİÑĪÐºÐ°": 7767,
      "ÑĤÐ°Ð»": 7768,
      "Ġcast": 7769,
      "ston": 7770,
      "ĠÐ¾ÑģÑĤÐ¾ÑĢÐ¾Ð¶": 7771,
      "Ġdiagn": 7772,
      "Ġhappy": 7773,
      "Ġfunctional": 7774,
      "Ġcaused": 7775,
      "Ġcommercial": 7776,
      "zen": 7777,
      "isted": 7778,
      "ĠJune": 7779,
      "hens": 7780,
      "ĠÐ·Ð²Ð¾Ð½": 7781,
      "Ð½Ð¸ÑĨÐµ": 7782,
      "Ġanalyzed": 7783,
      "ÐļÐ¾ÑĤÐ¾ÑĢ": 7784,
      "ĠÐ°Ð²": 7785,
      "ĠÐ·Ð½Ð°Ñı": 7786,
      "ĠÐ²Ð¸Ð´Ðµ": 7787,
      "pective": 7788,
      "Ġsquare": 7789,
      "Ġcontract": 7790,
      "Ġsurround": 7791,
      "lected": 7792,
      "ÐµÐ»Ð¸Ðº": 7793,
      "aph": 7794,
      "Ġunless": 7795,
      "ĠÐ¸Ð¼ÐµÑĤÑĮ": 7796,
      "Ġwall": 7797,
      "Ġcatch": 7798,
      "Ġign": 7799,
      "Ġwear": 7800,
      "ĠChe": 7801,
      "ĠÐŁÐ°ÑĢ": 7802,
      "ĠÑģÐ°Ð¼Ð¾Ð¼Ñĥ": 7803,
      "government": 7804,
      "Ġcreate": 7805,
      "Ġsuccessful": 7806,
      "ĠÐĴÑģÑĳ": 7807,
      "ÑĢÐ°Ð²ÐµÐ´Ð»Ð¸Ð²": 7808,
      "ĠÐ¿Ð¾ÑģÑĤÐ¾ÑıÐ½": 7809,
      "Ġtree": 7810,
      "Ġdrop": 7811,
      "owed": 7812,
      "ĠBecause": 7813,
      "Ð¸ÐµÐ¹": 7814,
      "Ġsevent": 7815,
      "Ġwhereas": 7816,
      "ĠÐ½ÐµÐ±Ð¾Ð»ÑĮ": 7817,
      "ĠÑģÑĩÐ°ÑģÑĤÑĮÐµ": 7818,
      "ĠÐ¿Ð¾ÑĩÑĥÐ²ÑģÑĤÐ²Ð¾Ð²Ð°Ð»": 7819,
      "IL": 7820,
      "Sh": 7821,
      "ĠÑĤÐµÑģ": 7822,
      "Ġprose": 7823,
      "Ġexcellent": 7824,
      "Ġguys": 7825,
      "Ġdespite": 7826,
      "def": 7827,
      "Ġhomes": 7828,
      "ĠÐ»Ð¾ÑĪÐ°Ð´ÑĮ": 7829,
      "ĠÐ¾ÑģÑĤÐ°Ð½Ð°Ð²Ð»Ð¸Ð²": 7830,
      "Ġweapons": 7831,
      "Ġtro": 7832,
      "ĠÐ·ÐµÐ»ÐµÐ½": 7833,
      "...\"": 7834,
      "ÐµÐ½Ð¸ÑıÐ¼Ð¸": 7835,
      "ĠÐ¿Ð¾ÐºÑĢÐ°Ñģ": 7836,
      "Ġsubstant": 7837,
      "Ð°ÑİÑīÐ¸Ð¹": 7838,
      "ĠÐ½Ð¸ÐºÐ°ÐºÐ¾Ð³Ð¾": 7839,
      "Ġafford": 7840,
      "Ġrespectively": 7841,
      "ĠVirgin": 7842,
      "kin": 7843,
      "ena": 7844,
      "ĠAust": 7845,
      "riage": 7846,
      "ÑĥÑĤÑģÑı": 7847,
      "Ð¾Ð¿Ð¾Ð»": 7848,
      "ĠÐ¼Ð¾ÐµÐ¼Ñĥ": 7849,
      "ĠÐ²Ð¸Ð´ÐµÐ»Ð°": 7850,
      "Ġtele": 7851,
      "ÑĢÐ°Ð·Ñĥ": 7852,
      "ĠÐ¾ÑĤÐ´Ð°Ð»": 7853,
      "Ġfamiliar": 7854,
      "pet": 7855,
      "ÑĭÐ»Ð¾": 7856,
      "Ð¾Ð²Ð°Ð»Ð¾": 7857,
      "Ð¸Ð²ÑĭÐ¹": 7858,
      "ĠMed": 7859,
      "Ġshot": 7860,
      "Ġ32": 7861,
      "rugg": 7862,
      "ĠÑĨÐµÑĢÐºÐ¾Ð²": 7863,
      "Ġstrategy": 7864,
      "Ġexercise": 7865,
      "ĠNATO": 7866,
      "ÂŃ": 7867,
      "Ð½Ð¾Ð¶": 7868,
      "Ð»Ð°ÑģÑĮ": 7869,
      "owing": 7870,
      "ĠIII": 7871,
      "ĠÐļÐ½ÑıÐ·ÑĮ": 7872,
      "Ġanymore": 7873,
      "Ġpresented": 7874,
      "Ġmuscle": 7875,
      "Ġinvestigation": 7876,
      "ĠMonica": 7877,
      "Ġlegis": 7878,
      "ÐķÐĿÐĺÐķ": 7879,
      "Ġ),": 7880,
      "onic": 7881,
      "ÐµÑĢÐ¾Ð¼": 7882,
      "ĠÐ·Ð°ÑħÐ¾ÑĤ": 7883,
      "ÑĦÑĢÐ°Ð½ÑĨ": 7884,
      "Ð½ÑĥÐ»Ð¾": 7885,
      "Ġslight": 7886,
      "ĠÐ»Ð¾ÑĪÐ°Ð´Ð¸": 7887,
      "Ġjudge": 7888,
      "ih": 7889,
      "ĠApp": 7890,
      "ĠÑĤÑĢÐµÑħ": 7891,
      "ĠÐºÐ¾ÑĢÐ¾ÑĤ": 7892,
      "ĠÑĨÐµÐ»ÑĭÐ¹": 7893,
      "hether": 7894,
      "import": 7895,
      "ĠÐĲÐ³": 7896,
      "ÑĥÑĤÑĥÐ·": 7897,
      "ducted": 7898,
      "Ġphase": 7899,
      "ĠÐ¼ÐµÑģÑıÑĨ": 7900,
      "ĠÑıÐ·Ñĭ": 7901,
      "ught": 7902,
      "TT": 7903,
      "war": 7904,
      "ÑĩÐµÐ³Ð¾": 7905,
      "Ð¾Ð²ÑĭÑħ": 7906,
      "Ġrecycl": 7907,
      "ĠÑĪÐº": 7908,
      "ĠÑģÐ¿ÐµÑĪ": 7909,
      "orylation": 7910,
      "Ġpool": 7911,
      "Ġyourself": 7912,
      "ĠÐ¿Ð¾ÑĢÐ°Ð¶": 7913,
      "ĠÐ¿ÐµÑĢÐ²Ð¾Ð³Ð¾": 7914,
      "suggest": 7915,
      "ministr": 7916,
      "lection": 7917,
      "Ġargument": 7918,
      "Ð¾Ð½ÑĮÐºÐ¾": 7919,
      "ĠÐ´ÑıÐ´Ñı": 7920,
      "ĠÐ¿Ð¾ÑĨÐµÐ»Ð¾Ð²": 7921,
      "Ġsolution": 7922,
      "Ġimage": 7923,
      "ĠÑĢÐ°Ð²Ð½": 7924,
      "Ġreduce": 7925,
      "oo": 7926,
      "ĠRed": 7927,
      "ensus": 7928,
      "Ġexamined": 7929,
      "ĠUSAT": 7930,
      "Ġrequirements": 7931,
      "invest": 7932,
      "eters": 7933,
      "Ð¸ÑĤÐ°": 7934,
      "Ð°ÑĤÐ°ÑĢ": 7935,
      "ĠÑĤÑĢÐ°Ð²": 7936,
      "Ġsymb": 7937,
      "ĠÐ±Ð¾Ñı": 7938,
      "Ġbuildings": 7939,
      "Ġsynthe": 7940,
      "Ġpair": 7941,
      "ĠÐ¼Ð°Ð½": 7942,
      "Ð¾Ð·Ð´": 7943,
      "ĠÐ³Ð¾ÑģÑĤ": 7944,
      "pha": 7945,
      "ĠÐºÐ°Ð±Ð¸Ð½": 7946,
      "Ġ196": 7947,
      "ĠÐ¿Ð¾Ð¼Ð¾Ð³": 7948,
      "got": 7949,
      "inant": 7950,
      "itative": 7951,
      "Ð¾Ð²ÑĭÐ¼": 7952,
      "ĠÐ»ÐµÐ²": 7953,
      "Ð¸Ð²Ð°ÑİÑĤ": 7954,
      "ĠFriday": 7955,
      "ĠÑĤÑĢÐµÑĤ": 7956,
      "ĠÑģÑĤÑĢÐ°ÑģÑĤ": 7957,
      "Ġmutations": 7958,
      "free": 7959,
      "Ġdark": 7960,
      "Ġlung": 7961,
      "story": 7962,
      "vered": 7963,
      "Ġforth": 7964,
      "ĠÐļÑĥÐ·": 7965,
      "Ġimplement": 7966,
      "Ð¸ÑĤÐµÐ»ÑĮÐ½ÑĭÐ¼": 7967,
      "Ġeasily": 7968,
      "ĠEngland": 7969,
      "Ġsales": 7970,
      "Ġreduction": 7971,
      "Ġthousands": 7972,
      "ĠMexico": 7973,
      "public": 7974,
      "ours": 7975,
      "These": 7976,
      "ĠÐ¢Ð°ÑĤÑĮÑı": 7977,
      "ĠÐ¸Ð¼ÐµÐµÑĤ": 7978,
      "Ġattract": 7979,
      "follow": 7980,
      "ĠÐºÐµÐ¼": 7981,
      "ÑİÐ¼": 7982,
      "Ð¾Ð³Ð°": 7983,
      "ĠÐ´ÑĢÑĥÐ³Ñĥ": 7984,
      "Ġanalyses": 7985,
      "vision": 7986,
      "ĠÐķÑīÐµ": 7987,
      "Ġgenerated": 7988,
      "Ġabsence": 7989,
      "Ġfailed": 7990,
      "dep": 7991,
      "eline": 7992,
      "ĠÐ¿Ð¾Ð´ÑĬ": 7993,
      "Ġapplied": 7994,
      "Ġbackground": 7995,
      "ĠÑģÑĤÐ¾ÑıÐ»Ð°": 7996,
      "ĠÐ´Ð¾ÑĢÐ¾Ð³Ð¸": 7997,
      "going": 7998,
      "ĠÐ²Ð·Ð³Ð»ÑıÐ´Ð¾Ð¼": 7999
    },
    "merges": [
      [
        "Ġ",
        "Ð"
      ],
      [
        "Ð",
        "¾"
      ],
      [
        "Ð",
        "µ"
      ],
      [
        "Ð",
        "°"
      ],
      [
        "Ñ",
        "Ĥ"
      ],
      [
        "Ð",
        "¸"
      ],
      [
        "Ñ",
        "ģ"
      ],
      [
        "Ð¾",
        "Ð"
      ],
      [
        "Ġ",
        "t"
      ],
      [
        "Ð",
        "½"
      ],
      [
        "Ñ",
        "Ģ"
      ],
      [
        "Ð",
        "»"
      ],
      [
        "h",
        "e"
      ],
      [
        "Ġ",
        "a"
      ],
      [
        "i",
        "n"
      ],
      [
        "Ñ",
        "ĥ"
      ],
      [
        "r",
        "e"
      ],
      [
        "Ð°",
        "Ð"
      ],
      [
        "Ġt",
        "he"
      ],
      [
        "Ñ",
        "ı"
      ],
      [
        "o",
        "n"
      ],
      [
        "Ðµ",
        "Ð"
      ],
      [
        "Ñ",
        "Į"
      ],
      [
        "a",
        "t"
      ],
      [
        "Ñ",
        "ĭ"
      ],
      [
        "Ġ",
        "Ñģ"
      ],
      [
        "Ġ",
        "s"
      ],
      [
        "e",
        "r"
      ],
      [
        "ĠÐ",
        "²"
      ],
      [
        "Ġ",
        "o"
      ],
      [
        "ĠÐ",
        "½"
      ],
      [
        "Ġ",
        "w"
      ],
      [
        "ĠÐ",
        "¿"
      ],
      [
        "Ñ",
        "ĩ"
      ],
      [
        "e",
        "n"
      ],
      [
        "i",
        "t"
      ],
      [
        "Ð",
        "º"
      ],
      [
        "n",
        "d"
      ],
      [
        "Ð",
        "²"
      ],
      [
        "e",
        "s"
      ],
      [
        "Ġ",
        "c"
      ],
      [
        "i",
        "s"
      ],
      [
        "o",
        "r"
      ],
      [
        "Ð",
        "´"
      ],
      [
        "o",
        "u"
      ],
      [
        "e",
        "d"
      ],
      [
        "Ġ",
        "b"
      ],
      [
        "a",
        "l"
      ],
      [
        "ĠÐ",
        "¸"
      ],
      [
        "Ġ",
        "p"
      ],
      [
        "ĠÐ",
        "¾"
      ],
      [
        "a",
        "n"
      ],
      [
        "in",
        "g"
      ],
      [
        "Ġo",
        "f"
      ],
      [
        "Ġ",
        "f"
      ],
      [
        "ÑĤ",
        "Ð¾"
      ],
      [
        "Ġ",
        "m"
      ],
      [
        "Ð",
        "¼"
      ],
      [
        "Ġt",
        "h"
      ],
      [
        "a",
        "r"
      ],
      [
        "Ġ",
        "in"
      ],
      [
        "Ġ",
        "d"
      ],
      [
        "Ġt",
        "o"
      ],
      [
        "Ñģ",
        "ÑĤ"
      ],
      [
        "Ġa",
        "nd"
      ],
      [
        "ĠÐ",
        "º"
      ],
      [
        "Ñ",
        "Ī"
      ],
      [
        "Ð°",
        "Ð»"
      ],
      [
        "Ñ",
        "ħ"
      ],
      [
        "Ð¾Ð",
        "²"
      ],
      [
        "i",
        "c"
      ],
      [
        "Ðµ",
        "Ð½"
      ],
      [
        "a",
        "s"
      ],
      [
        "Ġ",
        "h"
      ],
      [
        "ĠÐ",
        "´"
      ],
      [
        "i",
        "on"
      ],
      [
        "Ġ",
        "ÑĤ"
      ],
      [
        "l",
        "e"
      ],
      [
        "ĠÐ",
        "±"
      ],
      [
        "ĠÐ",
        "¼"
      ],
      [
        "o",
        "m"
      ],
      [
        "Ð¾Ð",
        "»"
      ],
      [
        "Ñ",
        "İ"
      ],
      [
        "Ðµ",
        "ÑĢ"
      ],
      [
        "Ðµ",
        "Ð»"
      ],
      [
        "³",
        "Ð¾"
      ],
      [
        "Ċ",
        "Ċ"
      ],
      [
        "en",
        "t"
      ],
      [
        "Ġ",
        "Ñĩ"
      ],
      [
        "Ðµ",
        "ÑĤ"
      ],
      [
        "l",
        "l"
      ],
      [
        "â",
        "Ģ"
      ],
      [
        "Ð¾Ð",
        "¼"
      ],
      [
        "l",
        "y"
      ],
      [
        "Ġ",
        "l"
      ],
      [
        "ÑĤ",
        "ÑĮ"
      ],
      [
        "Ð°Ð",
        "º"
      ],
      [
        "Ð½",
        "Ð¾"
      ],
      [
        "s",
        "t"
      ],
      [
        "Ñĥ",
        "Ð"
      ],
      [
        "v",
        "e"
      ],
      [
        "Ġ",
        "n"
      ],
      [
        "Ġ",
        "g"
      ],
      [
        "Ġ",
        "i"
      ],
      [
        "ĠÐ¿",
        "ÑĢ"
      ],
      [
        "Ġ",
        "re"
      ],
      [
        "Ġth",
        "at"
      ],
      [
        "o",
        "t"
      ],
      [
        "Ð¸",
        "Ð»"
      ],
      [
        "Ġ",
        "u"
      ],
      [
        "Ġ",
        "e"
      ],
      [
        "o",
        "w"
      ],
      [
        "ĠÐ",
        "·"
      ],
      [
        "ĠÐ½",
        "Ðµ"
      ],
      [
        "Ð¾Ð",
        "´"
      ],
      [
        "c",
        "t"
      ],
      [
        "u",
        "t"
      ],
      [
        "Ġ",
        "y"
      ],
      [
        ".",
        "."
      ],
      [
        "s",
        "e"
      ],
      [
        "Ð¾Ð",
        "¹"
      ],
      [
        "Ġb",
        "e"
      ],
      [
        "r",
        "o"
      ],
      [
        "Ð¸",
        "Ð"
      ],
      [
        "Ñģ",
        "Ñı"
      ],
      [
        "Ġ",
        "ÑĢ"
      ],
      [
        "Ð½",
        "Ð°"
      ],
      [
        "ÐµÐ",
        "¼"
      ],
      [
        "ĠÐ",
        "µ"
      ],
      [
        "Ġ",
        "it"
      ],
      [
        "ĠÐ½",
        "Ð°"
      ],
      [
        "i",
        "d"
      ],
      [
        "Ð¾",
        "ÑĢ"
      ],
      [
        "Ð°Ð",
        "·"
      ],
      [
        "i",
        "g"
      ],
      [
        "Ð",
        "¿"
      ],
      [
        "e",
        "t"
      ],
      [
        "'",
        "s"
      ],
      [
        "Ð°Ð",
        "¼"
      ],
      [
        "Ġ",
        "is"
      ],
      [
        "a",
        "y"
      ],
      [
        "Ġ",
        "T"
      ],
      [
        "Ð°",
        "Ð½"
      ],
      [
        "Ð¾",
        "Ñģ"
      ],
      [
        "Ġ",
        "on"
      ],
      [
        "ĠÐ",
        "³"
      ],
      [
        "Ð",
        "±"
      ],
      [
        "Ñ",
        "Ĩ"
      ],
      [
        "Ġw",
        "e"
      ],
      [
        "Ð°Ð",
        "²"
      ],
      [
        "a",
        "d"
      ],
      [
        "Ġy",
        "ou"
      ],
      [
        "Ð°",
        "Ñģ"
      ],
      [
        "c",
        "e"
      ],
      [
        "Ð½",
        "Ñĭ"
      ],
      [
        "Ġf",
        "or"
      ],
      [
        "Ġ",
        "Ñĥ"
      ],
      [
        "at",
        "ion"
      ],
      [
        "Ð¸",
        "ÑĤ"
      ],
      [
        "Ġ",
        "âĢ"
      ],
      [
        "i",
        "m"
      ],
      [
        "v",
        "er"
      ],
      [
        "c",
        "h"
      ],
      [
        "ĠÐ",
        "»"
      ],
      [
        "ÐµÐ",
        "´"
      ],
      [
        "ĠÐ±",
        "Ñĭ"
      ],
      [
        "Ð¾",
        "ÑĤ"
      ],
      [
        "u",
        "r"
      ],
      [
        "o",
        "l"
      ],
      [
        "Ð",
        "·"
      ],
      [
        "ĠÑĩ",
        "ÑĤÐ¾"
      ],
      [
        "a",
        "m"
      ],
      [
        "Ñ",
        "ī"
      ],
      [
        "Ġs",
        "t"
      ],
      [
        "Ð¸",
        "Ð½"
      ],
      [
        "Ð¾Ð",
        "³"
      ],
      [
        "i",
        "l"
      ],
      [
        "it",
        "h"
      ],
      [
        "u",
        "m"
      ],
      [
        "Ð¸",
        "Ð¼"
      ],
      [
        "ĠÐ",
        "¶"
      ],
      [
        "Ġ",
        "A"
      ],
      [
        "Ð°",
        "ÑĢ"
      ],
      [
        "Ġ",
        "I"
      ],
      [
        "Ġ",
        "k"
      ],
      [
        "Ġ",
        "Ñı"
      ],
      [
        "Ġ",
        "Ñ"
      ],
      [
        "Ð¾Ð",
        "½"
      ],
      [
        "he",
        "r"
      ],
      [
        "a",
        "nd"
      ],
      [
        "Ġa",
        "n"
      ],
      [
        "Ð¸",
        "Ð²"
      ],
      [
        "Ġ",
        "("
      ],
      [
        "Ġ",
        "S"
      ],
      [
        "Ġw",
        "h"
      ],
      [
        "i",
        "r"
      ],
      [
        "Ġ",
        "C"
      ],
      [
        "ÐµÐ",
        "¹"
      ],
      [
        "Ñģ",
        "Ðº"
      ],
      [
        "Ġw",
        "ith"
      ],
      [
        "Ð¾Ð",
        "±"
      ],
      [
        "Ġa",
        "s"
      ],
      [
        "Ð°",
        "ÑĤÑĮ"
      ],
      [
        "Ġw",
        "as"
      ],
      [
        "Ð¸",
        "Ðº"
      ],
      [
        "t",
        "h"
      ],
      [
        "u",
        "l"
      ],
      [
        "Ð°Ð",
        "´"
      ],
      [
        "t",
        "er"
      ],
      [
        "Ð¾Ð",
        "³Ð¾"
      ],
      [
        "ĠÐ¾",
        "ÑĤ"
      ],
      [
        "Ð",
        "¹"
      ],
      [
        "ĠÐ¾",
        "Ð½"
      ],
      [
        "ĠÐ²",
        "Ñģ"
      ],
      [
        "ĠÑ",
        "į"
      ],
      [
        "l",
        "d"
      ],
      [
        "Ð°",
        "ÑĤ"
      ],
      [
        "re",
        "s"
      ],
      [
        "ĠÑģ",
        "ÑĤ"
      ],
      [
        "r",
        "a"
      ],
      [
        "Ġh",
        "a"
      ],
      [
        "Ġ",
        "he"
      ],
      [
        "k",
        "e"
      ],
      [
        "Ð¾Ð",
        "¶"
      ],
      [
        "Ġ",
        "1"
      ],
      [
        "Ñģ",
        "ÑĮ"
      ],
      [
        "r",
        "i"
      ],
      [
        "ĠÐº",
        "Ð°Ðº"
      ],
      [
        "Ð»",
        "Ð¸"
      ],
      [
        "Ð°",
        "Ñı"
      ],
      [
        "o",
        "d"
      ],
      [
        "at",
        "e"
      ],
      [
        "i",
        "f"
      ],
      [
        "ÐµÐ",
        "²"
      ],
      [
        "e",
        "a"
      ],
      [
        "Ñĥ",
        "Ð´"
      ],
      [
        "ÑģÑĤ",
        "Ð²"
      ],
      [
        "ig",
        "h"
      ],
      [
        "Ġc",
        "on"
      ],
      [
        "Ð¾Ð»",
        "ÑĮ"
      ],
      [
        "Ġ",
        "M"
      ],
      [
        "ĠT",
        "he"
      ],
      [
        "Ġs",
        "e"
      ],
      [
        "Ð¾Ð",
        "º"
      ],
      [
        "Ð¸",
        "Ðµ"
      ],
      [
        "..",
        "."
      ],
      [
        "Ġ",
        "B"
      ],
      [
        "Ġa",
        "re"
      ],
      [
        "g",
        "e"
      ],
      [
        "ĠÐ²",
        "Ñĭ"
      ],
      [
        "n",
        "ow"
      ],
      [
        "o",
        "p"
      ],
      [
        "Ġo",
        "r"
      ],
      [
        "Ð",
        "³"
      ],
      [
        "u",
        "s"
      ],
      [
        "es",
        "t"
      ],
      [
        "is",
        "t"
      ],
      [
        "ÑĤÐ¾",
        "ÑĢ"
      ],
      [
        "Ġu",
        "h"
      ],
      [
        "ĠÐ¿",
        "Ð¾"
      ],
      [
        "-",
        "-"
      ],
      [
        "a",
        "b"
      ],
      [
        "ÑĥÐ",
        "¶"
      ],
      [
        "er",
        "s"
      ],
      [
        "Ġha",
        "ve"
      ],
      [
        "r",
        "om"
      ],
      [
        "ĠÐ",
        "Ŀ"
      ],
      [
        "q",
        "u"
      ],
      [
        "o",
        "s"
      ],
      [
        "Ġthe",
        "y"
      ],
      [
        "e",
        "m"
      ],
      [
        "Ġp",
        "ro"
      ],
      [
        "ĠÑģ",
        "Ð²"
      ],
      [
        "ÐµÐ",
        "±"
      ],
      [
        "Ð½",
        "Ðµ"
      ],
      [
        "Ġa",
        "t"
      ],
      [
        "Ġk",
        "now"
      ],
      [
        "Ġ",
        "r"
      ],
      [
        "o",
        "re"
      ],
      [
        "Ġe",
        "x"
      ],
      [
        "a",
        "c"
      ],
      [
        "ĠÐ±Ñĭ",
        "Ð»"
      ],
      [
        "an",
        "t"
      ],
      [
        "Ð",
        "³Ð¾"
      ],
      [
        "i",
        "ll"
      ],
      [
        "es",
        "s"
      ],
      [
        "a",
        "in"
      ],
      [
        "ĠâĢ",
        "Ķ"
      ],
      [
        "Ġ",
        "Ñħ"
      ],
      [
        "Ð¸",
        "ÑĤÑĮ"
      ],
      [
        "e",
        "w"
      ],
      [
        "'",
        "t"
      ],
      [
        "Ġ",
        "P"
      ],
      [
        "al",
        "ly"
      ],
      [
        "Ð¸",
        "Ñĩ"
      ],
      [
        "Ð¸",
        "Ñħ"
      ],
      [
        "Ġn",
        "ot"
      ],
      [
        "Ġb",
        "y"
      ],
      [
        "Ð",
        "¶"
      ],
      [
        "ÐµÐ",
        "³Ð¾"
      ],
      [
        "Ġd",
        "e"
      ],
      [
        "u",
        "st"
      ],
      [
        "Ð½",
        "Ñĥ"
      ],
      [
        "m",
        "ent"
      ],
      [
        "i",
        "ve"
      ],
      [
        "Ð¸",
        "Ð´"
      ],
      [
        "Ð¸Ð",
        "¹"
      ],
      [
        "Ġd",
        "o"
      ],
      [
        "igh",
        "t"
      ],
      [
        "u",
        "n"
      ],
      [
        "ÐµÐ",
        "·"
      ],
      [
        "Ġc",
        "om"
      ],
      [
        "Ð¸",
        "Ñı"
      ],
      [
        "Ð°Ð",
        "¶"
      ],
      [
        "it",
        "y"
      ],
      [
        "or",
        "t"
      ],
      [
        "ĠÐ",
        "Ĵ"
      ],
      [
        "ou",
        "ld"
      ],
      [
        "Ð»",
        "Ñı"
      ],
      [
        "Ðº",
        "Ð¾"
      ],
      [
        "Ð´",
        "Ð°"
      ],
      [
        "ĠÐ¾",
        "Ð±"
      ],
      [
        "t",
        "he"
      ],
      [
        "Ġ",
        "\""
      ],
      [
        "ĠÐ",
        "Ł"
      ],
      [
        "ÑĥÐ",
        "³"
      ],
      [
        "ĠâĢ",
        "ĵ"
      ],
      [
        "p",
        "e"
      ],
      [
        "ĠÑģ",
        "Ðº"
      ],
      [
        "Ġs",
        "u"
      ],
      [
        "Ġ",
        "v"
      ],
      [
        "ÐµÐ",
        "º"
      ],
      [
        "ĠÐ",
        "°"
      ],
      [
        "Ġ",
        "W"
      ],
      [
        "Ġ",
        "H"
      ],
      [
        "Ġ",
        "j"
      ],
      [
        "ĠÑĤ",
        "Ð°Ðº"
      ],
      [
        "i",
        "es"
      ],
      [
        "ea",
        "h"
      ],
      [
        "ĠÑģ",
        "Ð»"
      ],
      [
        "Ġa",
        "l"
      ],
      [
        "ĠÐµ",
        "Ð³Ð¾"
      ],
      [
        "n",
        "t"
      ],
      [
        "o",
        "c"
      ],
      [
        "Ġl",
        "i"
      ],
      [
        "Ġf",
        "rom"
      ],
      [
        "Ðµ",
        "Ñĩ"
      ],
      [
        "Ð¾Ð",
        "·"
      ],
      [
        "ou",
        "t"
      ],
      [
        "Ġg",
        "o"
      ],
      [
        "ÐµÐ»",
        "ÑĮ"
      ],
      [
        "p",
        "p"
      ],
      [
        "ÐµÐ",
        "¿"
      ],
      [
        "Ġ",
        "R"
      ],
      [
        "om",
        "e"
      ],
      [
        "ÑģÑĤ",
        "ÑĮ"
      ],
      [
        "Ġb",
        "ut"
      ],
      [
        "Ðµ",
        "Ñģ"
      ],
      [
        "Ġ",
        "N"
      ],
      [
        "Ġa",
        "b"
      ],
      [
        "re",
        "d"
      ],
      [
        "Ð°Ð»",
        "Ð°"
      ],
      [
        "e",
        "l"
      ],
      [
        "al",
        "l"
      ],
      [
        "u",
        "d"
      ],
      [
        "ĠÐ¸",
        "Ð·"
      ],
      [
        "ĠÐ¿",
        "Ð¾Ð´"
      ],
      [
        "u",
        "h"
      ],
      [
        "Ġ",
        "F"
      ],
      [
        "Ġ",
        "D"
      ],
      [
        "o",
        "st"
      ],
      [
        "Ð°Ð»",
        "Ð¸"
      ],
      [
        "e",
        "ll"
      ],
      [
        "ÑĢ",
        "Ð°"
      ],
      [
        "i",
        "v"
      ],
      [
        "ĠÐ·",
        "Ð°"
      ],
      [
        "g",
        "h"
      ],
      [
        "ĠÐ",
        "Ĳ"
      ],
      [
        "en",
        "d"
      ],
      [
        "Ġc",
        "h"
      ],
      [
        "Ð¾",
        "Ñĩ"
      ],
      [
        "Ðº",
        "Ð°"
      ],
      [
        "Ġ",
        "ÑĤÐ¾"
      ],
      [
        "Ðµ",
        "ÑĪ"
      ],
      [
        "at",
        "ed"
      ],
      [
        "ar",
        "t"
      ],
      [
        "Ġ",
        "le"
      ],
      [
        "Ñĥ",
        "ÑĤ"
      ],
      [
        "Ġ",
        "L"
      ],
      [
        "Ġwe",
        "re"
      ],
      [
        "Ġs",
        "h"
      ],
      [
        "ĠÑį",
        "ÑĤÐ¾"
      ],
      [
        "ĠÐ",
        "ŀ"
      ],
      [
        "ĠÐ²Ñģ",
        "Ðµ"
      ],
      [
        "ÐµÐ½",
        "ÑĮ"
      ],
      [
        "ĠÑĢ",
        "Ð°Ð·"
      ],
      [
        "as",
        "t"
      ],
      [
        "Ġw",
        "he"
      ],
      [
        "ĠÐº",
        "Ð¾"
      ],
      [
        "Ġth",
        "is"
      ],
      [
        "f",
        "e"
      ],
      [
        "Ðµ",
        "ÑģÑĤ"
      ],
      [
        "Ġ",
        "G"
      ],
      [
        "Ð¾Ð²",
        "Ð¾ÑĢ"
      ],
      [
        "Ð¸Ð",
        "·"
      ],
      [
        "âĢ",
        "ĵ"
      ],
      [
        "ct",
        "ion"
      ],
      [
        "u",
        "re"
      ],
      [
        "Ġm",
        "e"
      ],
      [
        "Ð°Ð¼",
        "Ð¸"
      ],
      [
        "Ġs",
        "o"
      ],
      [
        "a",
        "p"
      ],
      [
        "ĠÐ",
        "¡"
      ],
      [
        "Ñĥ",
        "Ð¼"
      ],
      [
        "Ġ",
        "2"
      ],
      [
        "in",
        "d"
      ],
      [
        "ou",
        "s"
      ],
      [
        "ou",
        "r"
      ],
      [
        "p",
        "l"
      ],
      [
        "ÑĢ",
        "ÑĥÐ³"
      ],
      [
        "ar",
        "d"
      ],
      [
        "Ġli",
        "ke"
      ],
      [
        "ĠÐ",
        "ļ"
      ],
      [
        "Ġa",
        "ll"
      ],
      [
        "ou",
        "gh"
      ],
      [
        "Ñĥ",
        "ÑĪ"
      ],
      [
        "ĠÑį",
        "ÑĤ"
      ],
      [
        "ĠÑģÐ²",
        "Ð¾"
      ],
      [
        "e",
        "ar"
      ],
      [
        "ÐµÐ",
        "¶"
      ],
      [
        "Ġc",
        "an"
      ],
      [
        "Ð»",
        "Ð°"
      ],
      [
        "t",
        "o"
      ],
      [
        "ic",
        "h"
      ],
      [
        "y",
        "eah"
      ],
      [
        "ÐµÐ½",
        "Ñı"
      ],
      [
        "an",
        "s"
      ],
      [
        "p",
        "t"
      ],
      [
        "Ð½",
        "Ñı"
      ],
      [
        "Ġ",
        "E"
      ],
      [
        "a",
        "g"
      ],
      [
        "i",
        "al"
      ],
      [
        "ĠÐº",
        "ÑĢ"
      ],
      [
        "Ð¾Ð³",
        "Ð´Ð°"
      ],
      [
        "Ð°Ð",
        "¹"
      ],
      [
        "ĠÐ",
        "ĺ"
      ],
      [
        "Ð¸",
        "ÑĨ"
      ],
      [
        "Ġon",
        "e"
      ],
      [
        "a",
        "u"
      ],
      [
        "Ġw",
        "or"
      ],
      [
        "ĠÐ¶",
        "Ðµ"
      ],
      [
        "t",
        "her"
      ],
      [
        "Ñĭ",
        "Ð¹"
      ],
      [
        "Ð¾Ð",
        "¿"
      ],
      [
        "in",
        "e"
      ],
      [
        "ĠÐ",
        "ľ"
      ],
      [
        "Ð½Ñĭ",
        "Ð¹"
      ],
      [
        "Ñĭ",
        "Ð²"
      ],
      [
        "T",
        "he"
      ],
      [
        "o",
        "k"
      ],
      [
        "in",
        "k"
      ],
      [
        "Ð¾Ð»ÑĮ",
        "ÐºÐ¾"
      ],
      [
        "on",
        "e"
      ],
      [
        "Ð°Ð",
        "¿"
      ],
      [
        "Ñĥ",
        "Ñĩ"
      ],
      [
        "Ġj",
        "ust"
      ],
      [
        "ĠÐºÐ¾",
        "ÑĤÐ¾ÑĢ"
      ],
      [
        "ĠÐ¼",
        "Ð½Ðµ"
      ],
      [
        "ĠÐ½",
        "Ð¾"
      ],
      [
        "Ġthe",
        "re"
      ],
      [
        "ĠÐ¾",
        "Ð´"
      ],
      [
        "Ñī",
        "Ðµ"
      ],
      [
        "ĠÐ»",
        "Ñİ"
      ],
      [
        "Ð",
        "Ŀ"
      ],
      [
        "Ġo",
        "ut"
      ],
      [
        "on",
        "g"
      ],
      [
        "Ġh",
        "as"
      ],
      [
        "âĢ",
        "Ķ"
      ],
      [
        "Ġab",
        "out"
      ],
      [
        "Ð¾",
        "ÑģÑĤ"
      ],
      [
        "ĠÐ",
        "³Ð¾"
      ],
      [
        "Ðº",
        "Ð¸"
      ],
      [
        "i",
        "z"
      ],
      [
        "Ġt",
        "r"
      ],
      [
        "Ð°Ð",
        "±"
      ],
      [
        "Ġ",
        "-"
      ],
      [
        ")",
        "."
      ],
      [
        "Ð",
        "Ĵ"
      ],
      [
        "ĠÐ¼",
        "ÐµÐ½Ñı"
      ],
      [
        "Ð½",
        "Ð¾Ð¹"
      ],
      [
        "0",
        "0"
      ],
      [
        "ÑĥÐ",
        "±"
      ],
      [
        "ĠÐ¿",
        "ÐµÑĢ"
      ],
      [
        "Ġp",
        "l"
      ],
      [
        "ĠÐ",
        "Ķ"
[...]
